{
  "version": "1.0",
  "truncation": null,
  "padding": null,
  "added_tokens": [
    {
      "id": 0,
      "content": "<s>",
      "single_word": false,
      "lstrip": false,
      "rstrip": false,
      "normalized": false,
      "special": true
    },
    {
      "id": 1,
      "content": "</s>",
      "single_word": false,
      "lstrip": false,
      "rstrip": false,
      "normalized": false,
      "special": true
    },
    {
      "id": 2,
      "content": "<unk>",
      "single_word": false,
      "lstrip": false,
      "rstrip": false,
      "normalized": false,
      "special": true
    },
    {
      "id": 3,
      "content": "<pad>",
      "single_word": false,
      "lstrip": false,
      "rstrip": false,
      "normalized": false,
      "special": true
    }
  ],
  "normalizer": null,
  "pre_tokenizer": {
    "type": "ByteLevel",
    "add_prefix_space": false,
    "trim_offsets": true,
    "use_regex": true
  },
  "post_processor": {
    "type": "ByteLevel",
    "add_prefix_space": true,
    "trim_offsets": false,
    "use_regex": true
  },
  "decoder": {
    "type": "ByteLevel",
    "add_prefix_space": true,
    "trim_offsets": true,
    "use_regex": true
  },
  "model": {
    "type": "BPE",
    "dropout": null,
    "unk_token": null,
    "continuing_subword_prefix": null,
    "end_of_word_suffix": null,
    "fuse_unk": false,
    "byte_fallback": false,
    "ignore_merges": false,
    "vocab": {
      "<s>": 0,
      "</s>": 1,
      "<unk>": 2,
      "<pad>": 3,
      "!": 4,
      "\"": 5,
      "#": 6,
      "$": 7,
      "%": 8,
      "&": 9,
      "'": 10,
      "(": 11,
      ")": 12,
      "*": 13,
      "+": 14,
      ",": 15,
      "-": 16,
      ".": 17,
      "/": 18,
      "0": 19,
      "1": 20,
      "2": 21,
      "3": 22,
      "4": 23,
      "5": 24,
      "6": 25,
      "7": 26,
      "8": 27,
      "9": 28,
      ":": 29,
      ";": 30,
      "<": 31,
      "=": 32,
      ">": 33,
      "?": 34,
      "@": 35,
      "A": 36,
      "B": 37,
      "C": 38,
      "D": 39,
      "E": 40,
      "F": 41,
      "G": 42,
      "H": 43,
      "I": 44,
      "J": 45,
      "K": 46,
      "L": 47,
      "M": 48,
      "N": 49,
      "O": 50,
      "P": 51,
      "Q": 52,
      "R": 53,
      "S": 54,
      "T": 55,
      "U": 56,
      "V": 57,
      "W": 58,
      "X": 59,
      "Y": 60,
      "Z": 61,
      "[": 62,
      "\\": 63,
      "]": 64,
      "^": 65,
      "_": 66,
      "`": 67,
      "a": 68,
      "b": 69,
      "c": 70,
      "d": 71,
      "e": 72,
      "f": 73,
      "g": 74,
      "h": 75,
      "i": 76,
      "j": 77,
      "k": 78,
      "l": 79,
      "m": 80,
      "n": 81,
      "o": 82,
      "p": 83,
      "q": 84,
      "r": 85,
      "s": 86,
      "t": 87,
      "u": 88,
      "v": 89,
      "w": 90,
      "x": 91,
      "y": 92,
      "z": 93,
      "{": 94,
      "|": 95,
      "}": 96,
      "~": 97,
      "¡": 98,
      "¢": 99,
      "£": 100,
      "¤": 101,
      "¥": 102,
      "¦": 103,
      "§": 104,
      "¨": 105,
      "©": 106,
      "ª": 107,
      "«": 108,
      "¬": 109,
      "®": 110,
      "¯": 111,
      "°": 112,
      "±": 113,
      "²": 114,
      "³": 115,
      "´": 116,
      "µ": 117,
      "¶": 118,
      "·": 119,
      "¸": 120,
      "¹": 121,
      "º": 122,
      "»": 123,
      "¼": 124,
      "½": 125,
      "¾": 126,
      "¿": 127,
      "À": 128,
      "Á": 129,
      "Â": 130,
      "Ã": 131,
      "Ä": 132,
      "Å": 133,
      "Æ": 134,
      "Ç": 135,
      "È": 136,
      "É": 137,
      "Ê": 138,
      "Ë": 139,
      "Ì": 140,
      "Í": 141,
      "Î": 142,
      "Ï": 143,
      "Ð": 144,
      "Ñ": 145,
      "Ò": 146,
      "Ó": 147,
      "Ô": 148,
      "Õ": 149,
      "Ö": 150,
      "×": 151,
      "Ø": 152,
      "Ù": 153,
      "Ú": 154,
      "Û": 155,
      "Ü": 156,
      "Ý": 157,
      "Þ": 158,
      "ß": 159,
      "à": 160,
      "á": 161,
      "â": 162,
      "ã": 163,
      "ä": 164,
      "å": 165,
      "æ": 166,
      "ç": 167,
      "è": 168,
      "é": 169,
      "ê": 170,
      "ë": 171,
      "ì": 172,
      "í": 173,
      "î": 174,
      "ï": 175,
      "ð": 176,
      "ñ": 177,
      "ò": 178,
      "ó": 179,
      "ô": 180,
      "õ": 181,
      "ö": 182,
      "÷": 183,
      "ø": 184,
      "ù": 185,
      "ú": 186,
      "û": 187,
      "ü": 188,
      "ý": 189,
      "þ": 190,
      "ÿ": 191,
      "Ā": 192,
      "ā": 193,
      "Ă": 194,
      "ă": 195,
      "Ą": 196,
      "ą": 197,
      "Ć": 198,
      "ć": 199,
      "Ĉ": 200,
      "ĉ": 201,
      "Ċ": 202,
      "ċ": 203,
      "Č": 204,
      "č": 205,
      "Ď": 206,
      "ď": 207,
      "Đ": 208,
      "đ": 209,
      "Ē": 210,
      "ē": 211,
      "Ĕ": 212,
      "ĕ": 213,
      "Ė": 214,
      "ė": 215,
      "Ę": 216,
      "ę": 217,
      "Ě": 218,
      "ě": 219,
      "Ĝ": 220,
      "ĝ": 221,
      "Ğ": 222,
      "ğ": 223,
      "Ġ": 224,
      "ġ": 225,
      "Ģ": 226,
      "ģ": 227,
      "Ĥ": 228,
      "ĥ": 229,
      "Ħ": 230,
      "ħ": 231,
      "Ĩ": 232,
      "ĩ": 233,
      "Ī": 234,
      "ī": 235,
      "Ĭ": 236,
      "ĭ": 237,
      "Į": 238,
      "į": 239,
      "İ": 240,
      "ı": 241,
      "Ĳ": 242,
      "ĳ": 243,
      "Ĵ": 244,
      "ĵ": 245,
      "Ķ": 246,
      "ķ": 247,
      "ĸ": 248,
      "Ĺ": 249,
      "ĺ": 250,
      "Ļ": 251,
      "ļ": 252,
      "Ľ": 253,
      "ľ": 254,
      "Ŀ": 255,
      "ŀ": 256,
      "Ł": 257,
      "ł": 258,
      "Ń": 259,
      "Ġt": 260,
      "Ġa": 261,
      "he": 262,
      "in": 263,
      "re": 264,
      "on": 265,
      "Ġthe": 266,
      "er": 267,
      "en": 268,
      "at": 269,
      "Ġo": 270,
      "Ġs": 271,
      "es": 272,
      "Ġc": 273,
      "Ġw": 274,
      "al": 275,
      "nd": 276,
      "ed": 277,
      "it": 278,
      "or": 279,
      "is": 280,
      "Ġp": 281,
      "Ġin": 282,
      "Ġof": 283,
      "an": 284,
      "ion": 285,
      "Ġf": 286,
      "ar": 287,
      "ic": 288,
      "Ġb": 289,
      "Ġd": 290,
      "ing": 291,
      "Ġand": 292,
      "Ġm": 293,
      "ro": 294,
      "Ġto": 295,
      "as": 296,
      "ent": 297,
      "le": 298,
      "Ġe": 299,
      "ct": 300,
      "Ġre": 301,
      "ou": 302,
      "Ġh": 303,
      "Ġth": 304,
      "el": 305,
      "om": 306,
      "ation": 307,
      "st": 308,
      "il": 309,
      "Ġn": 310,
      "iv": 311,
      "Ġl": 312,
      "et": 313,
      "ĠT": 314,
      "im": 315,
      "ch": 316,
      "ol": 317,
      "Ġ(": 318,
      "ce": 319,
      "ig": 320,
      "ur": 321,
      "Ġst": 322,
      "Ġg": 323,
      "us": 324,
      "id": 325,
      "Ġis": 326,
      "ot": 327,
      "ra": 328,
      "ly": 329,
      "ĠS": 330,
      "ut": 331,
      "Ġv": 332,
      "Ġbe": 333,
      "Ġfor": 334,
      "Ġon": 335,
      "ĠA": 336,
      "Ġas": 337,
      "Ġcon": 338,
      "ul": 339,
      "am": 340,
      "Ġde": 341,
      "Ġ1": 342,
      "ow": 343,
      "ĠC": 344,
      "ith": 345,
      "Ġthat": 346,
      "ir": 347,
      "ere": 348,
      "ĠI": 349,
      "ers": 350,
      "Ġ2": 351,
      "Ġwith": 352,
      "se": 353,
      "Ġpro": 354,
      "her": 355,
      "if": 356,
      "Ġal": 357,
      "ad": 358,
      "ment": 359,
      "Ġwas": 360,
      "ter": 361,
      "ĠThe": 362,
      "Ġan": 363,
      "ud": 364,
      "ity": 365,
      "ĠM": 366,
      "un": 367,
      "Ġwh": 368,
      "ge": 369,
      "ist": 370,
      "od": 371,
      "ect": 372,
      "ab": 373,
      "res": 374,
      "Ġex": 375,
      "ies": 376,
      "ess": 377,
      "est": 378,
      "ĠP": 379,
      "ay": 380,
      "ver": 381,
      "ve": 382,
      "Ġsu": 383,
      "qu": 384,
      "Ġcom": 385,
      "ive": 386,
      "ĠB": 387,
      "ant": 388,
      "Ġby": 389,
      "em": 390,
      "Ġhe": 391,
      "ort": 392,
      "oc": 393,
      "ate": 394,
      "ĠH": 395,
      "Ġ20": 396,
      "os": 397,
      "op": 398,
      "and": 399,
      "ri": 400,
      "Ġare": 401,
      "ore": 402,
      "ĠF": 403,
      "Ġor": 404,
      "Ġit": 405,
      "pp": 406,
      "ac": 407,
      "ain": 408,
      "th": 409,
      "Ġat": 410,
      "um": 411,
      "ĠD": 412,
      "rom": 413,
      "Ġ\"": 414,
      "ial": 415,
      "art": 416,
      "ĠR": 417,
      "nt": 418,
      "ure": 419,
      "Ġle": 420,
      "ical": 421,
      "Ġse": 422,
      "ated": 423,
      "ĠE": 424,
      "Ġfrom": 425,
      "ich": 426,
      "ip": 427,
      "Ġch": 428,
      "Ġr": 429,
      "Ġen": 430,
      "ĠW": 431,
      "og": 432,
      "ld": 433,
      "ĠL": 434,
      "ĠG": 435,
      "ie": 436,
      "pt": 437,
      "Ġwere": 438,
      "ions": 439,
      "ill": 440,
      ").": 441,
      "igh": 442,
      "ff": 443,
      "Ġus": 444,
      "Ġnot": 445,
      "ĠN": 446,
      "Ġne": 447,
      "Ġstud": 448,
      "ak": 449,
      "ult": 450,
      "Ġres": 451,
      "Ġsh": 452,
      "act": 453,
      "'s": 454,
      "rou": 455,
      "Ġim": 456,
      "Ġcomp": 457,
      "du": 458,
      "our": 459,
      "Ġwhich": 460,
      "Ġ19": 461,
      "Ġthis": 462,
      "iz": 463,
      "Ġha": 464,
      "are": 465,
      "ĠIn": 466,
      "Ġk": 467,
      "ard": 468,
      "ag": 469,
      "ther": 470,
      "ations": 471,
      "Ġu": 472,
      "end": 473,
      "per": 474,
      "Ġinc": 475,
      "orm": 476,
      "pl": 477,
      "pe": 478,
      "Ġcont": 479,
      "Ġad": 480,
      "ĠO": 481,
      "ru": 482,
      "vel": 483,
      "all": 484,
      "ence": 485,
      "cc": 486,
      "ance": 487,
      "Ġint": 488,
      "Ġtheir": 489,
      "age": 490,
      "ost": 491,
      "ents": 492,
      "Ġy": 493,
      "Ġper": 494,
      "ord": 495,
      "ine": 496,
      "ong": 497,
      "ign": 498,
      "ous": 499,
      "Ġpart": 500,
      "âĢ": 501,
      "gh": 502,
      "Ġ201": 503,
      "able": 504,
      "Ġhave": 505,
      "ber": 506,
      "Ġwe": 507,
      "ell": 508,
      "ĠJ": 509,
      "ia": 510,
      "ans": 511,
      "ork": 512,
      "Ġ[": 513,
      "Ġimp": 514,
      "Ġun": 515,
      "Ġme": 516,
      "Ġte": 517,
      "ary": 518,
      "ould": 519,
      "ast": 520,
      "ire": 521,
      "Ġpl": 522,
      "ual": 523,
      "ight": 524,
      "ction": 525,
      "ach": 526,
      "Ġab": 527,
      "Ġwhe": 528,
      "form": 529,
      "we": 530,
      "ition": 531,
      "Ġdis": 532,
      "Ġpre": 533,
      "Ġqu": 534,
      "ust": 535,
      "The": 536,
      "so": 537,
      "ome": 538,
      "ors": 539,
      "Ġhis": 540,
      "Ġapp": 541,
      "Ġcan": 542,
      "Ġcl": 543,
      "00": 544,
      "ear": 545,
      "Ġinter": 546,
      "ens": 547,
      "ific": 548,
      "Ġall": 549,
      "ap": 550,
      "Ġbet": 551,
      "fere": 552,
      "ue": 553,
      "av": 554,
      "ib": 555,
      "),": 556,
      "ely": 557,
      "ĠU": 558,
      "ang": 559,
      "Ġrel": 560,
      "ress": 561,
      "Ġind": 562,
      "ĠK": 563,
      "ces": 564,
      "Ġhas": 565,
      "ond": 566,
      "Ġsc": 567,
      "ys": 568,
      "Ġalso": 569,
      "ĠTh": 570,
      "ari": 571,
      "Ġ3": 572,
      "ide": 573,
      "Ġcons": 574,
      "Ġdif": 575,
      "ice": 576,
      "Ġman": 577,
      "Ġass": 578,
      "out": 579,
      "ind": 580,
      "Ġother": 581,
      "Ġhad": 582,
      "Ġj": 583,
      "erv": 584,
      "Ġet": 585,
      "ub": 586,
      "Ġthey": 587,
      "Ġmore": 588,
      "ffect": 589,
      "Ġar": 590,
      "ween": 591,
      "ount": 592,
      "Ġwho": 593,
      "ĠSt": 594,
      "ame": 595,
      "ass": 596,
      "Ġev": 597,
      "ory": 598,
      "Ġmod": 599,
      "ree": 600,
      "Ġbetween": 601,
      "Ġbut": 602,
      "ase": 603,
      "ij": 604,
      "ime": 605,
      "Ġone": 606,
      "ric": 607,
      "ative": 608,
      "Ġem": 609,
      "Ġcomm": 610,
      "ĠV": 611,
      "olog": 612,
      "ep": 613,
      "ish": 614,
      "ased": 615,
      "Ġstudy": 616,
      "ater": 617,
      "ility": 618,
      "Ġdes": 619,
      "ational": 620,
      "ian": 621,
      "Ġ200": 622,
      "Ġout": 623,
      "ok": 624,
      "ities": 625,
      "Ġtra": 626,
      "Ġwork": 627,
      "lud": 628,
      "ms": 629,
      "Ġreg": 630,
      "Ġact": 631,
      "nder": 632,
      "ĠCh": 633,
      "oll": 634,
      "ik": 635,
      "ood": 636,
      "ry": 637,
      "ject": 638,
      "Ġsp": 639,
      "ild": 640,
      "ov": 641,
      "Ġag": 642,
      "Ġrep": 643,
      "te": 644,
      "Ġacc": 645,
      "Ġrec": 646,
      "rib": 647,
      "Ġbeen": 648,
      "rit": 649,
      "ning": 650,
      "ack": 651,
      "ates": 652,
      "Ġpartic": 653,
      "Ġdiffere": 654,
      "ren": 655,
      "Ġdo": 656,
      "amp": 657,
      "Ġob": 658,
      "Ġsy": 659,
      "Ġits": 660,
      "Ġtw": 661,
      "Ġfir": 662,
      ".,": 663,
      "arch": 664,
      "ile": 665,
      "Ġdat": 666,
      "ied": 667,
      "Ġro": 668,
      "ound": 669,
      "ons": 670,
      "ced": 671,
      "ose": 672,
      "les": 673,
      "velop": 674,
      "Ġpos": 675,
      "ings": 676,
      "lect": 677,
      "ph": 678,
      "Ġthere": 679,
      "Ġsub": 680,
      "lic": 681,
      "ew": 682,
      "cess": 683,
      "Ġmet": 684,
      "Ġunder": 685,
      "Ġ4": 686,
      "pec": 687,
      "pect": 688,
      "over": 689,
      "Ġvan": 690,
      "int": 691,
      "Ġpr": 692,
      "Ġover": 693,
      "Ġsoc": 694,
      "Ġsign": 695,
      "Ġthan": 696,
      "ace": 697,
      "ark": 698,
      "roup": 699,
      "Ġatt": 700,
      "ĠIt": 701,
      "Ġvari": 702,
      "ments": 703,
      "now": 704,
      "20": 705,
      "Ġtwo": 706,
      "Ġinclud": 707,
      "Ġresult": 708,
      "resent": 709,
      "Ġeffect": 710,
      "ail": 711,
      "].": 712,
      "fter": 713,
      "Ġtime": 714,
      "Ġbec": 715,
      "Ġthese": 716,
      "Ġinv": 717,
      "Ġdevelop": 718,
      "Ġshow": 719,
      "aus": 720,
      "uc": 721,
      "ants": 722,
      "Ġrese": 723,
      "Ġsuch": 724,
      "Ġtr": 725,
      "Ġanal": 726,
      "Ġso": 727,
      "uring": 728,
      "cept": 729,
      "Ġ0": 730,
      "ĠThis": 731,
      "hip": 732,
      "hed": 733,
      "Ġprov": 734,
      "ered": 735,
      "ating": 736,
      "Ġno": 737,
      "Ġ5": 738,
      "Ġgen": 739,
      "Ġfirst": 740,
      "old": 741,
      "Ġyear": 742,
      "Ġam": 743,
      "ally": 744,
      "rough": 745,
      "one": 746,
      "Ġval": 747,
      "erm": 748,
      "Ġra": 749,
      "Ġused": 750,
      "ics": 751,
      "Ġpat": 752,
      "ĠHe": 753,
      "Ġmay": 754,
      "Ġwill": 755,
      "Ġpe": 756,
      "Ġz": 757,
      "Ġgroup": 758,
      "Ġdec": 759,
      "Ġac": 760,
      "oth": 761,
      "Ġwhen": 762,
      "Ġmodel": 763,
      "Ġform": 764,
      "reat": 765,
      "Ġinto": 766,
      "ite": 767,
      "ident": 768,
      "alth": 769,
      "Ġdata": 770,
      "ough": 771,
      "ract": 772,
      "ever": 773,
      "tern": 774,
      "Ġsupp": 775,
      "dition": 776,
      "Ã©": 777,
      "ob": 778,
      "con": 779,
      "ex": 780,
      "Ġparticip": 781,
      "elf": 782,
      "ient": 783,
      "Ġdist": 784,
      "iew": 785,
      "Ġprodu": 786,
      "fore": 787,
      "Ġonly": 788,
      "ake": 789,
      "Ġver": 790,
      "ious": 791,
      "oy": 792,
      "Ġthem": 793,
      "Ġexper": 794,
      "ng": 795,
      "Ġher": 796,
      "tain": 797,
      "ures": 798,
      "Ġ=": 799,
      "Ġup": 800,
      "eg": 801,
      "ool": 802,
      "stem": 803,
      "led": 804,
      "Ġknow": 805,
      "ollow": 806,
      "Ġuse": 807,
      "ks": 808,
      "ional": 809,
      "wn": 810,
      "cy": 811,
      "Ġfact": 812,
      "Ġtrans": 813,
      "ict": 814,
      "Ġed": 815,
      "ĠAl": 816,
      "ural": 817,
      "Ġabout": 818,
      "gan": 819,
      "Ġwould": 820,
      "In": 821,
      "Ġsome": 822,
      "Ġresearch": 823,
      "iss": 824,
      "Ġco": 825,
      "Ġlevel": 826,
      "Ġ18": 827,
      "ale": 828,
      "Ġph": 829,
      "Ġincre": 830,
      "Ġinst": 831,
      "ne": 832,
      "ular": 833,
      "ivers": 834,
      "Ġinf": 835,
      "Ġhigh": 836,
      "ram": 837,
      "Ġsignific": 838,
      "ss": 839,
      "de": 840,
      "Ġmost": 841,
      "19": 842,
      "Ġresp": 843,
      "Ġcor": 844,
      "ove": 845,
      "ruct": 846,
      "Ġdifferent": 847,
      "Ġpers": 848,
      "Ġfe": 849,
      "hen": 850,
      "als": 851,
      "Ġfollow": 852,
      "Ġop": 853,
      "Ġpol": 854,
      "Ġnum": 855,
      "Ġla": 856,
      "ays": 857,
      "ward": 858,
      "ribut": 859,
      "Ġthrough": 860,
      "Ġafter": 861,
      "ts": 862,
      "Ġwhere": 863,
      "Ġstudents": 864,
      "Ġanalys": 865,
      "ise": 866,
      "Ġsocial": 867,
      "ivid": 868,
      "Ġspec": 869,
      "ten": 870,
      "Ġexp": 871,
      "ality": 872,
      "Ġnew": 873,
      "Ġsch": 874,
      "hes": 875,
      "Ġwell": 876,
      "Ġdep": 877,
      "Ġdisc": 878,
      "ited": 879,
      "Ġprocess": 880,
      "Ġcol": 881,
      "land": 882,
      "ec": 883,
      "Ġ6": 884,
      "owever": 885,
      "iet": 886,
      "Ġsystem": 887,
      "ĠUn": 888,
      "ange": 889,
      "oint": 890,
      "Ġyou": 891,
      "Ġgener": 892,
      "Ġlear": 893,
      "ien": 894,
      "itive": 895,
      "Ġstr": 896,
      "--": 897,
      "red": 898,
      "Ġserv": 899,
      "Ġappro": 900,
      "Ġperform": 901,
      "Ġour": 902,
      "Ġfound": 903,
      "ues": 904,
      "ined": 905,
      "Ġest": 906,
      "ĠâĢ": 907,
      "Ġhet": 908,
      "Ġoff": 909,
      "ople": 910,
      "Ġinform": 911,
      "ade": 912,
      "Ġsignificant": 913,
      "Ġchild": 914,
      "Ġhealth": 915,
      "Ġeach": 916,
      "arg": 917,
      "Ġloc": 918,
      "Ġsec": 919,
      "ower": 920,
      "Ġent": 921,
      "Ġmed": 922,
      "ized": 923,
      "Ġ'": 924,
      "ability": 925,
      "ention": 926,
      "Ġboth": 927,
      "ness": 928,
      "round": 929,
      "rol": 930,
      "ĠDe": 931,
      "ause": 932,
      "der": 933,
      "Ġcount": 934,
      "ible": 935,
      "ble": 936,
      "ulation": 937,
      "ature": 938,
      "Ġeen": 939,
      "Ġma": 940,
      "ily": 941,
      "io": 942,
      "Ġ.": 943,
      "Ġpub": 944,
      "Ġduring": 945,
      "Ġbeh": 946,
      "Ġdet": 947,
      "Ġ199": 948,
      "ife": 949,
      "Ġactiv": 950,
      "Ġsur": 951,
      "Ġfin": 952,
      "ism": 953,
      "its": 954,
      "ted": 955,
      "oci": 956,
      "oor": 957,
      "yp": 958,
      "Ġresults": 959,
      "eld": 960,
      "Ġrem": 961,
      "ron": 962,
      "Ġeduc": 963,
      "uss": 964,
      "Ġpeople": 965,
      "mer": 966,
      "Ġimport": 967,
      "ful": 968,
      "ĠY": 969,
      "ividual": 970,
      "Ġexpl": 971,
      "anc": 972,
      "ateg": 973,
      "ft": 974,
      "Ġconsid": 975,
      "Ġconc": 976,
      "conom": 977,
      "Ġdef": 978,
      "Ġpresent": 979,
      "Ġcommun": 980,
      "ically": 981,
      "hod": 982,
      "ke": 983,
      "ix": 984,
      "chn": 985,
      "lu": 986,
      "Ġcould": 987,
      "Ġyears": 988,
      "urn": 989,
      "ample": 990,
      "Ġsim": 991,
      "Ġusing": 992,
      "Ġmeas": 993,
      "ices": 994,
      "Ġaut": 995,
      "Ġref": 996,
      "Ġset": 997,
      "ath": 998,
      "ience": 999,
      "ier": 1000,
      "ared": 1001,
      "ively": 1002,
      "Ġneed": 1003,
      "Ġany": 1004,
      "Ġhim": 1005,
      "Ġfam": 1006,
      "Ġsupport": 1007,
      "Ġstudies": 1008,
      "Ġprev": 1009,
      "Ġtest": 1010,
      "ived": 1011,
      "Ġindividual": 1012,
      "Ġthree": 1013,
      "Ġmain": 1014,
      "Ġlik": 1015,
      "ior": 1016,
      "iven": 1017,
      "Ġext": 1018,
      "view": 1019,
      "ĠAs": 1020,
      "Ġanalysis": 1021,
      "Ġmem": 1022,
      "ology": 1023,
      "Ġconst": 1024,
      "Ġnumber": 1025,
      "ization": 1026,
      "ives": 1027,
      "Ġ7": 1028,
      "gg": 1029,
      "omen": 1030,
      "omm": 1031,
      "Ġsa": 1032,
      "ĠWe": 1033,
      "Ġreport": 1034,
      "Ġshould": 1035,
      "ffic": 1036,
      "ook": 1037,
      "Ġpop": 1038,
      "irect": 1039,
      "Ġchar": 1040,
      "ital": 1041,
      "\",": 1042,
      "ision": 1043,
      "Ġsm": 1044,
      "ines": 1045,
      "erg": 1046,
      "Ġfind": 1047,
      "Ġbeing": 1048,
      "Ġcent": 1049,
      "overn": 1050,
      "Ġquest": 1051,
      "Ġif": 1052,
      "arly": 1053,
      "Ġident": 1054,
      "nce": 1055,
      "ink": 1056,
      "Ġdevelopment": 1057,
      "row": 1058,
      "Ġindic": 1059,
      "Ġcomple": 1060,
      "Ġbu": 1061,
      "ince": 1062,
      "Ġshe": 1063,
      "Ġdem": 1064,
      "Ġhig": 1065,
      "sy": 1066,
      "Ġ8": 1067,
      "âĢĻ": 1068,
      "ological": 1069,
      "ral": 1070,
      "orld": 1071,
      "Ġassoci": 1072,
      "Ġbel": 1073,
      "Ġschool": 1074,
      "uch": 1075,
      "Ġsame": 1076,
      "Ġthose": 1077,
      "Ġcare": 1078,
      "Ġorgan": 1079,
      "Ġinformation": 1080,
      "rel": 1081,
      "iron": 1082,
      "up": 1083,
      "other": 1084,
      "Ġbehav": 1085,
      "ty": 1086,
      "Ġtechn": 1087,
      "Ġplay": 1088,
      "ross": 1089,
      "Ġthen": 1090,
      "Ġparticipants": 1091,
      "Ġconf": 1092,
      "ved": 1093,
      "Ġrelations": 1094,
      "Ġmethod": 1095,
      "Ġ-": 1096,
      "ining": 1097,
      "Ġwhile": 1098,
      "ene": 1099,
      "Ġ&": 1100,
      "Ġbl": 1101,
      "Ġcur": 1102,
      "Ġprog": 1103,
      "\".": 1104,
      "Ġmark": 1105,
      "Ġpar": 1106,
      "Ġlead": 1107,
      "au": 1108,
      "itut": 1109,
      "Ġmon": 1110,
      "Ġlearning": 1111,
      "Ġlit": 1112,
      "ished": 1113,
      "Ġpract": 1114,
      "Ġret": 1115,
      "ven": 1116,
      "Ġhow": 1117,
      "ients": 1118,
      "any": 1119,
      "ern": 1120,
      "lement": 1121,
      "Ġlong": 1122,
      "ting": 1123,
      "ogn": 1124,
      "Ġmany": 1125,
      "ank": 1126,
      "Ġprof": 1127,
      "aking": 1128,
      "Ġart": 1129,
      "Ġ_": 1130,
      "Ġ9": 1131,
      "urther": 1132,
      "Ġprovid": 1133,
      "viron": 1134,
      "ek": 1135,
      "Ġmade": 1136,
      "ize": 1137,
      "ases": 1138,
      "Ġgra": 1139,
      "ĠFor": 1140,
      "ather": 1141,
      "ording": 1142,
      "Ġdesc": 1143,
      "Ġeconom": 1144,
      "und": 1145,
      "ĠAr": 1146,
      "ah": 1147,
      "ĠPro": 1148,
      "Ġbased": 1149,
      "ving": 1150,
      "man": 1151,
      "Ġamong": 1152,
      "Ġnon": 1153,
      "erd": 1154,
      "ĠInd": 1155,
      "ages": 1156,
      "Ġlife": 1157,
      "Ġgo": 1158,
      "port": 1159,
      "ouse": 1160,
      "Ġclass": 1161,
      "Ġagain": 1162,
      "rent": 1163,
      "ential": 1164,
      "Ġposs": 1165,
      "Ġinvest": 1166,
      "Ġcre": 1167,
      "inc": 1168,
      "ins": 1169,
      "Ġbecause": 1170,
      "Ġrequ": 1171,
      "Ġsecond": 1172,
      "ified": 1173,
      "Ġcontrol": 1174,
      "ploy": 1175,
      "Ġcar": 1176,
      "itions": 1177,
      "ĠAn": 1178,
      "the": 1179,
      "air": 1180,
      "Ġav": 1181,
      "ug": 1182,
      "Ġcap": 1183,
      "Ġ10": 1184,
      "ĠCon": 1185,
      "Ġfun": 1186,
      "Ġwithin": 1187,
      "Ġstat": 1188,
      "pos": 1189,
      "Ġtot": 1190,
      "Ġchildren": 1191,
      "Ġcharact": 1192,
      "na": 1193,
      "Ġpublic": 1194,
      "ression": 1195,
      "Ġter": 1196,
      "Ġown": 1197,
      "Ġfl": 1198,
      "uro": 1199,
      "Ġperson": 1200,
      "ection": 1201,
      "ner": 1202,
      "Ġstate": 1203,
      "Ġge": 1204,
      "Ġdid": 1205,
      "Ġris": 1206,
      "stand": 1207,
      "pr": 1208,
      "Ġend": 1209,
      "Th": 1210,
      "Ġimportant": 1211,
      "arm": 1212,
      "ĠZ": 1213,
      "Ġpoint": 1214,
      "Ġdesign": 1215,
      "Ġword": 1216,
      "Ġenviron": 1217,
      "Ġmin": 1218,
      "Ġmat": 1219,
      "iversity": 1220,
      "ield": 1221,
      "ists": 1222,
      "Ġ202": 1223,
      "Ġrelationship": 1224,
      "ason": 1225,
      "ental": 1226,
      "hers": 1227,
      "oun": 1228,
      "Ġobs": 1229,
      "sych": 1230,
      "Ġimpro": 1231,
      "Ġwhat": 1232,
      "Ġproble": 1233,
      "Ġdirect": 1234,
      "Ġocc": 1235,
      "Ġhigher": 1236,
      "eng": 1237,
      "raph": 1238,
      "ledge": 1239,
      "duct": 1240,
      "iod": 1241,
      "own": 1242,
      "ĠThere": 1243,
      "oh": 1244,
      "âĢĵ": 1245,
      "ency": 1246,
      "Ġeducation": 1247,
      "igure": 1248,
      "cl": 1249,
      ".\"": 1250,
      "Ġgovern": 1251,
      "Ã¤": 1252,
      "Ġhum": 1253,
      "inal": 1254,
      "lish": 1255,
      "ock": 1256,
      "Ġinflu": 1257,
      "Ġincluding": 1258,
      "ired": 1259,
      "ries": 1260,
      "Ġpres": 1261,
      "Ġcharacter": 1262,
      "erest": 1263,
      "Ġage": 1264,
      "ck": 1265,
      "Ġbefore": 1266,
      "Ġvery": 1267,
      "Ġins": 1268,
      "orn": 1269,
      "Ġadv": 1270,
      "apt": 1271,
      "agement": 1272,
      "ggest": 1273,
      "Ġassess": 1274,
      "Ġser": 1275,
      "ĠHowever": 1276,
      "iness": 1277,
      "ration": 1278,
      "ĠEng": 1279,
      "Ġsuggest": 1280,
      "ables": 1281,
      "to": 1282,
      "ets": 1283,
      "Ġequ": 1284,
      "Ġfac": 1285,
      "Ġke": 1286,
      "ars": 1287,
      "omp": 1288,
      "Ġrele": 1289,
      "Ġ198": 1290,
      "angu": 1291,
      "ick": 1292,
      "Ġadd": 1293,
      "Ġfour": 1294,
      "line": 1295,
      "Ġcrit": 1296,
      "orth": 1297,
      "idence": 1298,
      "Ġcult": 1299,
      "Ġenvironment": 1300,
      "isc": 1301,
      "ially": 1302,
      "ering": 1303,
      "Ġself": 1304,
      "Ġaddition": 1305,
      "Ġever": 1306,
      "201": 1307,
      "Ġmean": 1308,
      "ocus": 1309,
      "Ġperformance": 1310,
      "Ġvalue": 1311,
      "Ġsmall": 1312,
      "ĠLe": 1313,
      "por": 1314,
      "Ġmult": 1315,
      "outh": 1316,
      "Ġprom": 1317,
      "ceived": 1318,
      "Ġredu": 1319,
      "work": 1320,
      "ised": 1321,
      "Ġi": 1322,
      "Ġchang": 1323,
      "olut": 1324,
      "Ġneg": 1325,
      "Ġknowledge": 1326,
      "Ġfollowing": 1327,
      "Ġless": 1328,
      "Ġhel": 1329,
      "Ġimpact": 1330,
      "me": 1331,
      "Ġdi": 1332,
      "Ġrepresent": 1333,
      "aw": 1334,
      "Ġpur": 1335,
      "Ġpatients": 1336,
      "Ġfactors": 1337,
      "Ġorder": 1338,
      "Ġlim": 1339,
      "aar": 1340,
      "lected": 1341,
      "Ġperiod": 1342,
      "Ġemploy": 1343,
      "Ġmeasure": 1344,
      "Ġeven": 1345,
      "nces": 1346,
      "bers": 1347,
      "ption": 1348,
      "ination": 1349,
      "Ġland": 1350,
      "Ġvis": 1351,
      "Ġstand": 1352,
      "xt": 1353,
      "Ġhand": 1354,
      "Ġer": 1355,
      "ĠQ": 1356,
      "iqu": 1357,
      "ograph": 1358,
      "imes": 1359,
      "Ġbas": 1360,
      "iving": 1361,
      "..": 1362,
      "Ġsk": 1363,
      "way": 1364,
      "lection": 1365,
      "tle": 1366,
      "Ġobserv": 1367,
      "ina": 1368,
      "atic": 1369,
      "Ġlow": 1370,
      "ann": 1371,
      "Ġsubject": 1372,
      "Ġwomen": 1373,
      "Ġdel": 1374,
      "Ġfocus": 1375,
      "Ġsever": 1376,
      "Ġwrit": 1377,
      "Ġteac": 1378,
      "ify": 1379,
      "Ġproduct": 1380,
      "Ġcontin": 1381,
      "iety": 1382,
      "ently": 1383,
      "hold": 1384,
      "ĠRe": 1385,
      "Ġdue": 1386,
      "Ġinterv": 1387,
      "ĠOn": 1388,
      "arc": 1389,
      "Ġcase": 1390,
      "ertain": 1391,
      "Ġcall": 1392,
      "alu": 1393,
      "arent": 1394,
      "Ġauth": 1395,
      "ĠÎ": 1396,
      "Ġgu": 1397,
      "][": 1398,
      "Ġgre": 1399,
      "Ġmy": 1400,
      "ull": 1401,
      "be": 1402,
      "ĠSc": 1403,
      "els": 1404,
      "Ġstruct": 1405,
      "Ġstrateg": 1406,
      "ĠSe": 1407,
      "meric": 1408,
      "ret": 1409,
      "Ġhist": 1410,
      "Ġexam": 1411,
      "Ġinvol": 1412,
      "az": 1413,
      "Ġinterest": 1414,
      "Ġeng": 1415,
      "iver": 1416,
      "Ġcour": 1417,
      "ĠWh": 1418,
      "Ġpsych": 1419,
      "Ġquestion": 1420,
      "Ġintern": 1421,
      "Ġgeneral": 1422,
      "Ġlangu": 1423,
      "Ġ15": 1424,
      "Ġright": 1425,
      "Ġhelp": 1426,
      "000": 1427,
      "Ġoper": 1428,
      "Ġpopulation": 1429,
      "Ġunderstand": 1430,
      "arge": 1431,
      "Ġgroups": 1432,
      "Ġpred": 1433,
      "Ġsit": 1434,
      "Ġrisk": 1435,
      "10": 1436,
      "Ġgood": 1437,
      "Ġpost": 1438,
      "Ġphys": 1439,
      "action": 1440,
      "Ġdiff": 1441,
      "Ġaffect": 1442,
      "Ġopp": 1443,
      "ĠTable": 1444,
      "Ġgl": 1445,
      "ves": 1446,
      "Ġmot": 1447,
      "ll": 1448,
      "Ġeffects": 1449,
      "ately": 1450,
      "Ġfre": 1451,
      "ert": 1452,
      "Ġparticular": 1453,
      "Ġcost": 1454,
      "Ġindu": 1455,
      "ains": 1456,
      "Ġpot": 1457,
      "Ġprevious": 1458,
      "Ġrelated": 1459,
      "Ġfunction": 1460,
      "Ġway": 1461,
      "ĠNew": 1462,
      "ax": 1463,
      "Ġrole": 1464,
      "Ġcompet": 1465,
      "Ġfamily": 1466,
      "lished": 1467,
      "Ġspe": 1468,
      "ccess": 1469,
      "Ġfil": 1470,
      "ales": 1471,
      "Ġexample": 1472,
      "Ġmen": 1473,
      "Ġworld": 1474,
      "Ġtri": 1475,
      "med": 1476,
      "Ġtas": 1477,
      "Ġpositive": 1478,
      "Ġarea": 1479,
      "Ġ12": 1480,
      "ended": 1481,
      "acy": 1482,
      "ually": 1483,
      "ained": 1484,
      "Ġdescrib": 1485,
      "ilar": 1486,
      "Ġ17": 1487,
      "Ġ,": 1488,
      "rodu": 1489,
      "ĠAt": 1490,
      "jor": 1491,
      "Ġhuman": 1492,
      "Ġsl": 1493,
      "Ġplace": 1494,
      "ave": 1495,
      "Ġobject": 1496,
      "ources": 1497,
      "Ġdeterm": 1498,
      "ems": 1499,
      "Ġassociated": 1500,
      "Ġbro": 1501,
      "Ġtreat": 1502,
      "Ġpolic": 1503,
      "Ġconduct": 1504,
      "Ġiss": 1505,
      "Ġcurrent": 1506,
      "Ġmake": 1507,
      "sc": 1508,
      "Ġagainst": 1509,
      "ury": 1510,
      "Ġlater": 1511,
      "Ġtotal": 1512,
      "Ġrest": 1513,
      "ĠAmeric": 1514,
      "itud": 1515,
      "oss": 1516,
      "Ġliter": 1517,
      "ext": 1518,
      "though": 1519,
      "Ġchange": 1520,
      "Ġseveral": 1521,
      "ze": 1522,
      "Ġback": 1523,
      "Ġmarket": 1524,
      "Ġes": 1525,
      "vers": 1526,
      "istics": 1527,
      "Ġreported": 1528,
      "Ġlike": 1529,
      "Ġvoor": 1530,
      "Ġbus": 1531,
      "istic": 1532,
      "Ġpa": 1533,
      "Ġold": 1534,
      "Ġincluded": 1535,
      "Ġsing": 1536,
      "ĠSh": 1537,
      "Ġwithout": 1538,
      "ense": 1539,
      "Ġgiven": 1540,
      "Ġpower": 1541,
      "Ġ197": 1542,
      "Ġnet": 1543,
      "wards": 1544,
      "com": 1545,
      "Ġel": 1546,
      "ĠÃ": 1547,
      "Ġrespons": 1548,
      "Ġrespect": 1549,
      "omet": 1550,
      "ission": 1551,
      "ird": 1552,
      "ran": 1553,
      "Ġmus": 1554,
      "Ġâ": 1555,
      "Ġregard": 1556,
      "Ġteam": 1557,
      "emic": 1558,
      "Ġthough": 1559,
      "Ġread": 1560,
      "200": 1561,
      "par": 1562,
      "urs": 1563,
      "Ġallow": 1564,
      "Ġ16": 1565,
      "Ġproject": 1566,
      "Ġconcept": 1567,
      "mber": 1568,
      "Ġmust": 1569,
      "ĠTo": 1570,
      "Ġapproach": 1571,
      "Ġfurther": 1572,
      "ĠRes": 1573,
      "gen": 1574,
      "Ġcontribut": 1575,
      "Ġleg": 1576,
      "Ġbo": 1577,
      "Ġprot": 1578,
      "Ġevery": 1579,
      "Ġjust": 1580,
      "ote": 1581,
      "Ġlarge": 1582,
      "Ġlocal": 1583,
      "Ġevalu": 1584,
      "cent": 1585,
      "ilit": 1586,
      "yn": 1587,
      "This": 1588,
      "Ġorig": 1589,
      "ator": 1590,
      "Ġvol": 1591,
      "Ġvers": 1592,
      "ton": 1593,
      "Ġeconomic": 1594,
      "ris": 1595,
      "ats": 1596,
      "Ġpolit": 1597,
      "Ġgrow": 1598,
      "min": 1599,
      "Ġsym": 1600,
      "Ġvariables": 1601,
      "rict": 1602,
      "read": 1603,
      "ification": 1604,
      "ĠSch": 1605,
      "sequ": 1606,
      "Ġbehavior": 1607,
      "Ġoften": 1608,
      "ĠThese": 1609,
      "Ġline": 1610,
      "Ġincrease": 1611,
      "Ġestim": 1612,
      "Ġopen": 1613,
      "Ġgreat": 1614,
      "Ġmight": 1615,
      "epend": 1616,
      "ief": 1617,
      "Ġsince": 1618,
      "Ġhouse": 1619,
      "arl": 1620,
      "Ġknown": 1621,
      "Ġbuild": 1622,
      "ijn": 1623,
      "Ġprofess": 1624,
      "Ġgovernment": 1625,
      "Ġpotential": 1626,
      "Ġquality": 1627,
      "Ġcond": 1628,
      "Ġsuccess": 1629,
      "Ġlanguage": 1630,
      "18": 1631,
      "Ġdiscuss": 1632,
      "ĠAd": 1633,
      "Ġcountries": 1634,
      "abor": 1635,
      "Ġmajor": 1636,
      "ories": 1637,
      "Ġmuch": 1638,
      "ĠIs": 1639,
      "Ġsimilar": 1640,
      "ibility": 1641,
      "ash": 1642,
      "Ġpass": 1643,
      "Ġlevels": 1644,
      "rop": 1645,
      "Ġdom": 1646,
      "Ġstart": 1647,
      "uture": 1648,
      "Ġreal": 1649,
      "Ġdr": 1650,
      "Ġmater": 1651,
      "Ġconsidered": 1652,
      "Ġestab": 1653,
      "Ġtyp": 1654,
      "app": 1655,
      "Ġview": 1656,
      "ames": 1657,
      "Ġaccount": 1658,
      "Ġlaw": 1659,
      "ĠFigure": 1660,
      "oot": 1661,
      "],": 1662,
      "osed": 1663,
      "Ġide": 1664,
      "ators": 1665,
      "Ġprogram": 1666,
      "ances": 1667,
      "aching": 1668,
      "Ġactivities": 1669,
      "ores": 1670,
      "ĠThey": 1671,
      "Ġspecific": 1672,
      "Ġfore": 1673,
      "Ġdistribut": 1674,
      "ills": 1675,
      "Ġdie": 1676,
      "Ġobtain": 1677,
      "Ġach": 1678,
      "Ġdoes": 1679,
      "Ġstill": 1680,
      "of": 1681,
      "ĠEuro": 1682,
      "Ġbra": 1683,
      "arri": 1684,
      "Ġpredict": 1685,
      "ivity": 1686,
      "Ġexpect": 1687,
      "Ġcommunity": 1688,
      "Ġcommon": 1689,
      "Ġexperience": 1690,
      "Ġpossible": 1691,
      "Ġaver": 1692,
      "ling": 1693,
      "Ġindust": 1694,
      "hem": 1695,
      "Ġconsum": 1696,
      "ĠComm": 1697,
      "Ġexist": 1698,
      "den": 1699,
      "irc": 1700,
      "Ġstrong": 1701,
      "ont": 1702,
      "Ġacross": 1703,
      "Ġearly": 1704,
      "rist": 1705,
      "Ġmanagement": 1706,
      "agn": 1707,
      "urb": 1708,
      "Ġdifferences": 1709,
      "Ġday": 1710,
      "oms": 1711,
      "Ġprovide": 1712,
      "Ġreview": 1713,
      "usion": 1714,
      "Ġwhether": 1715,
      "ĠCl": 1716,
      "Ġcompared": 1717,
      "Ġinvestig": 1718,
      "Ġimprove": 1719,
      "Ġwerd": 1720,
      "Ġtraining": 1721,
      "Ġrecord": 1722,
      "ody": 1723,
      "Ġbusiness": 1724,
      "ĠSp": 1725,
      "Ġinit": 1726,
      "Ġsee": 1727,
      "Ġimplement": 1728,
      "Ġvalues": 1729,
      "ium": 1730,
      "Ġconsist": 1731,
      "Ġvarious": 1732,
      "Ġcountry": 1733,
      "Ġprim": 1734,
      "Ġnetwork": 1735,
      "12": 1736,
      "less": 1737,
      "ilities": 1738,
      "Ġcal": 1739,
      "aken": 1740,
      "ring": 1741,
      "Ġterms": 1742,
      "ĠUnited": 1743,
      "ĠUniversity": 1744,
      "Ġbest": 1745,
      "Ġcorrel": 1746,
      "Ġexperien": 1747,
      "Ġcle": 1748,
      "Ġsaid": 1749,
      "Ġcontext": 1750,
      "Ġaccess": 1751,
      "Ġconsider": 1752,
      "Ġfinanc": 1753,
      "cing": 1754,
      "Ġchanges": 1755,
      "xim": 1756,
      "Ġbene": 1757,
      "Ġtem": 1758,
      "rated": 1759,
      "Ġ14": 1760,
      "asing": 1761,
      "Ġnow": 1762,
      "Ġ13": 1763,
      "Ġder": 1764,
      "icult": 1765,
      "Ġconn": 1766,
      "Ġsample": 1767,
      "icip": 1768,
      "Ġindividuals": 1769,
      "Ġtre": 1770,
      "ieve": 1771,
      "Ġstandard": 1772,
      "Ġshown": 1773,
      "Ġfindings": 1774,
      "Ġ196": 1775,
      "Ġparent": 1776,
      "ype": 1777,
      "ste": 1778,
      "erc": 1779,
      "Ġwater": 1780,
      "based": 1781,
      "atory": 1782,
      "olution": 1783,
      "Ġlast": 1784,
      "Ġmembers": 1785,
      "Ġbi": 1786,
      "une": 1787,
      "ĠAll": 1788,
      "11": 1789,
      "Ġavail": 1790,
      "Ġemot": 1791,
      "Ġareas": 1792,
      "Ġ2020": 1793,
      "ither": 1794,
      "Ġbecame": 1795,
      "ued": 1796,
      "ĠShe": 1797,
      "Ġactivity": 1798,
      "Ġlarg": 1799,
      "Ġrespond": 1800,
      "Ġunt": 1801,
      "Ġservices": 1802,
      "Ġtop": 1803,
      "Ġmodels": 1804,
      "Ġanother": 1805,
      "Ġann": 1806,
      "fficient": 1807,
      "Ġconditions": 1808,
      "Ġtreatment": 1809,
      "Ġdoor": 1810,
      "ĠEx": 1811,
      "Ġuit": 1812,
      "ference": 1813,
      "onst": 1814,
      "ĠCol": 1815,
      "Ġrate": 1816,
      "ĠFr": 1817,
      "Ġelect": 1818,
      "Ġlower": 1819,
      "Ġfuture": 1820,
      "Ġabove": 1821,
      "Ġnational": 1822,
      "Ġcompar": 1823,
      "15": 1824,
      "Ġreturn": 1825,
      "ĠEnglish": 1826,
      "ane": 1827,
      "Ġappear": 1828,
      "Ġfield": 1829,
      "Ġcomb": 1830,
      "ored": 1831,
      "get": 1832,
      "Ġanaly": 1833,
      "Ġbetter": 1834,
      "ication": 1835,
      "Ġtru": 1836,
      "Ġinfluence": 1837,
      "ruction": 1838,
      "Ġsitu": 1839,
      "osp": 1840,
      "son": 1841,
      "Ġservice": 1842,
      "Ġfrequ": 1843,
      "Ġincreased": 1844,
      "ai": 1845,
      "ĠâĢľ": 1846,
      "eral": 1847,
      "Ġcaus": 1848,
      "Ġmaterial": 1849,
      "onse": 1850,
      "Ġbenef": 1851,
      "Ġinstitut": 1852,
      "âĢĿ": 1853,
      "akes": 1854,
      "iple": 1855,
      "Ġcogn": 1856,
      "ĠEurope": 1857,
      "Ġenc": 1858,
      "Ġdifficult": 1859,
      "Ġpropos": 1860,
      "Ġfem": 1861,
      "Ġnegative": 1862,
      "Ġsat": 1863,
      "ung": 1864,
      "Ġothers": 1865,
      "Ġaverage": 1866,
      "Ġshort": 1867,
      "ender": 1868,
      "cul": 1869,
      "vey": 1870,
      "ians": 1871,
      "ends": 1872,
      "Ġevidence": 1873,
      "ley": 1874,
      "Ġinclude": 1875,
      "Ġmeans": 1876,
      "ĠPh": 1877,
      "Ġcateg": 1878,
      "by": 1879,
      "Ġtake": 1880,
      "Ġbehavi": 1881,
      "mm": 1882,
      "sh": 1883,
      "Ġcity": 1884,
      "Ġhowever": 1885,
      "reg": 1886,
      "put": 1887,
      "Ġupon": 1888,
      "Ġnecess": 1889,
      "ison": 1890,
      "Ġyoung": 1891,
      "rid": 1892,
      "Ġdev": 1893,
      "Ġ11": 1894,
      "fer": 1895,
      "ĠBe": 1896,
      "ware": 1897,
      "Ġ2015": 1898,
      "Ġdra": 1899,
      "rim": 1900,
      "Ġproduction": 1901,
      "Ġshows": 1902,
      "elij": 1903,
      "Ġill": 1904,
      "Ġuntil": 1905,
      "ĠGerm": 1906,
      "let": 1907,
      "ata": 1908,
      "Ġnam": 1909,
      "Ġmove": 1910,
      "Ġcalled": 1911,
      "Ġfamil": 1912,
      "Ġ2016": 1913,
      "nov": 1914,
      "iam": 1915,
      "urch": 1916,
      "Ġmonth": 1917,
      "ĠAnd": 1918,
      "Ġ2018": 1919,
      "Ġphysical": 1920,
      "Ġartic": 1921,
      "Ġaim": 1922,
      "orts": 1923,
      "ours": 1924,
      "ait": 1925,
      "Ġexperim": 1926,
      "Ġhome": 1927,
      "Ġauthor": 1928,
      "Ġdeg": 1929,
      "Ġteachers": 1930,
      "Ġ2014": 1931,
      "Ġcertain": 1932,
      "Ġ2017": 1933,
      "Ġaccording": 1934,
      "Ġfew": 1935,
      "Ġhaving": 1936,
      "ones": 1937,
      "Ġsect": 1938,
      "Ġ2010": 1939,
      "Ġconducted": 1940,
      "ergy": 1941,
      "oph": 1942,
      "Ġhead": 1943,
      "Ġshowed": 1944,
      "Ġsingle": 1945,
      "Ġ|": 1946,
      "Ġproblem": 1947,
      "af": 1948,
      "Ġ2019": 1949,
      "ĠÂ": 1950,
      "Ġinteg": 1951,
      "Ġleft": 1952,
      "Ġfinancial": 1953,
      "Ġfive": 1954,
      "Ġarg": 1955,
      "Ġnorm": 1956,
      "Ġliterature": 1957,
      "eb": 1958,
      "ĠAf": 1959,
      "Ġoffic": 1960,
      "Ġbeg": 1961,
      "Ġ2013": 1962,
      "Ġcho": 1963,
      "ober": 1964,
      "ĠAmerican": 1965,
      "ae": 1966,
      "Ġopt": 1967,
      "isf": 1968,
      "Ġsex": 1969,
      "not": 1970,
      "ple": 1971,
      "ohn": 1972,
      "Ġcompany": 1973,
      "ember": 1974,
      "50": 1975,
      "17": 1976,
      "ource": 1977,
      "ival": 1978,
      "Ġtask": 1979,
      "Ġdown": 1980,
      "Ġlist": 1981,
      "Ġdeveloped": 1982,
      "Ġant": 1983,
      "13": 1984,
      "Ġsent": 1985,
      "14": 1986,
      "ĠStates": 1987,
      "Ġpolicy": 1988,
      "Ġresponse": 1989,
      "ccording": 1990,
      "ults": 1991,
      "Ġclin": 1992,
      "Ġname": 1993,
      "Ġhyp": 1994,
      "Ġproblems": 1995,
      "Ġzijn": 1996,
      "ences": 1997,
      "Ġpresented": 1998,
      "att": 1999,
      "ners": 2000,
      "Ġpri": 2001,
      "othes": 2002,
      "oman": 2003,
      "Ġ2012": 2004,
      "ressed": 2005,
      "rast": 2006,
      "Ġterm": 2007,
      "Ġinterp": 2008,
      "Ġchall": 2009,
      "Ġstructure": 2010,
      "Ġreceived": 2011,
      "ably": 2012,
      "Ġrun": 2013,
      "Ã¡": 2014,
      "Ġaround": 2015,
      "Ġche": 2016,
      "Ġthus": 2017,
      "aim": 2018,
      "16": 2019,
      "Ġpaper": 2020,
      "Ġ2011": 2021,
      "Ġfood": 2022,
      "Ġproper": 2023,
      "Ġfram": 2024,
      "for": 2025,
      "Ġmental": 2026,
      "ee": 2027,
      "lev": 2028,
      "Ġplan": 2029,
      "Ġ194": 2030,
      "Ġcondition": 2031,
      "Ġlikely": 2032,
      "ĠPart": 2033,
      "Ġsens": 2034,
      "ortun": 2035,
      "ĠCO": 2036,
      "Ġlo": 2037,
      "Ġalong": 2038,
      "Ġprovided": 2039,
      "Ġindepend": 2040,
      "Ġsize": 2041,
      "Ġapplic": 2042,
      "Ġpractice": 2043,
      "ID": 2044,
      "mp": 2045,
      "Ġbecome": 2046,
      "Ġtarg": 2047,
      "Ġmeasures": 2048,
      "Ġsignificantly": 2049,
      "ript": 2050,
      "ery": 2051,
      "Ġvi": 2052,
      "Ġprofessional": 2053,
      "Ġnat": 2054,
      "Ġprinc": 2055,
      "ways": 2056,
      "alk": 2057,
      "Ġobserved": 2058,
      "Ġresources": 2059,
      "ĠAfter": 2060,
      "ples": 2061,
      "Ġinterview": 2062,
      "Ġlack": 2063,
      "Ġthink": 2064,
      "iation": 2065,
      "Ġ30": 2066,
      "Ġep": 2067,
      "aster": 2068,
      "Ġseries": 2069,
      "imens": 2070,
      "It": 2071,
      "Ġstim": 2072,
      "Ġwar": 2073,
      "pecially": 2074,
      "30": 2075,
      "Ġsix": 2076,
      "rap": 2077,
      "Ġexc": 2078,
      "anu": 2079,
      "Ġmor": 2080,
      "Ġavailable": 2081,
      "Ġrather": 2082,
      "Ġdecision": 2083,
      "ĠOr": 2084,
      "ĠTe": 2085,
      "ĠX": 2086,
      "ĠSouth": 2087,
      "Ġteaching": 2088,
      "Ġdescribed": 2089,
      "ides": 2090,
      "Ġut": 2091,
      "Ġprob": 2092,
      "Ġsol": 2093,
      "ope": 2094,
      "Ġrecogn": 2095,
      "Ġtimes": 2096,
      "minist": 2097,
      "Ġcomplex": 2098,
      "Ġfilm": 2099,
      "tt": 2100,
      "atively": 2101,
      "Ġsust": 2102,
      "enn": 2103,
      "Ġassum": 2104,
      "Ġseen": 2105,
      "ĠAm": 2106,
      "Ġmid": 2107,
      "chan": 2108,
      "Ġmethods": 2109,
      "ilt": 2110,
      "Ġfund": 2111,
      "Ġtype": 2112,
      "Ġunderstanding": 2113,
      "Ġskills": 2114,
      "ute": 2115,
      "rie": 2116,
      "Ġcognitive": 2117,
      "Ġaspect": 2118,
      "reen": 2119,
      "ising": 2120,
      "Ġdeath": 2121,
      "hood": 2122,
      "Ġresearc": 2123,
      "Ġseason": 2124,
      "day": 2125,
      "ĠNational": 2126,
      "Ġmov": 2127,
      "ception": 2128,
      "Ġable": 2129,
      "hib": 2130,
      "ĠChrist": 2131,
      "use": 2132,
      "Ġgrowth": 2133,
      "here": 2134,
      "Ġfactor": 2135,
      "Ġcases": 2136,
      "ique": 2137,
      "ĠAust": 2138,
      "sw": 2139,
      "oid": 2140,
      "Ġdepend": 2141,
      "Ġposition": 2142,
      "Ġask": 2143,
      "mit": 2144,
      "Ġ<": 2145,
      "hing": 2146,
      "Ġscale": 2147,
      "Ġdemand": 2148,
      "Ġcirc": 2149,
      "Ġtherefore": 2150,
      "ety": 2151,
      "rag": 2152,
      "ĠBrit": 2153,
      "Ġreve": 2154,
      "Ġleast": 2155,
      "Ġpriv": 2156,
      "Ġneeds": 2157,
      "ĠUS": 2158,
      "ister": 2159,
      "Ġbody": 2160,
      "Ġbook": 2161,
      "Ġturn": 2162,
      "Ġpattern": 2163,
      "ĠMay": 2164,
      "ĠBl": 2165,
      "Ġpolitical": 2166,
      "Ġgreater": 2167,
      "Ġget": 2168,
      "Ġdifference": 2169,
      "wh": 2170,
      "Ġscore": 2171,
      "Ġtook": 2172,
      "Ġorganiz": 2173,
      "ipp": 2174,
      "ument": 2175,
      "Ġsympt": 2176,
      "ires": 2177,
      "eria": 2178,
      "ĠII": 2179,
      "Ġaan": 2180,
      "vant": 2181,
      "Ġ2009": 2182,
      "obal": 2183,
      "Ġquestions": 2184,
      "ox": 2185,
      "hest": 2186,
      "ĠPl": 2187,
      "ĠBut": 2188,
      "Ġdeb": 2189,
      "Ġpain": 2190,
      "aff": 2191,
      "Ġreason": 2192,
      "Ġitems": 2193,
      "Ġconnect": 2194,
      "Ġsystems": 2195,
      "Ġinnov": 2196,
      "ball": 2197,
      "Ġcharacteristics": 2198,
      "urg": 2199,
      "ĠAfric": 2200,
      "ĠWhen": 2201,
      "ike": 2202,
      "ken": 2203,
      "Ġcapital": 2204,
      "Ġund": 2205,
      "Ġaccept": 2206,
      "Ġadop": 2207,
      "Ġintrodu": 2208,
      "Ġkey": 2209,
      "Ġoccur": 2210,
      "ront": 2211,
      "Ġespecially": 2212,
      "ony": 2213,
      "Ġ2008": 2214,
      "Ġfeel": 2215,
      "esc": 2216,
      "Ġnature": 2217,
      "Ġworking": 2218,
      "St": 2219,
      "Ġsam": 2220,
      "Ġdemonst": 2221,
      "Ġhistory": 2222,
      "Ġtradition": 2223,
      "Ġtechnology": 2224,
      "ĠJohn": 2225,
      "li": 2226,
      "illion": 2227,
      "ott": 2228,
      "Ġwords": 2229,
      "ma": 2230,
      "alf": 2231,
      "Ġcoll": 2232,
      "ode": 2233,
      "Ġattention": 2234,
      "Ġstress": 2235,
      "leg": 2236,
      "ried": 2237,
      "oring": 2238,
      "Ġprior": 2239,
      "atures": 2240,
      "Ġstudent": 2241,
      "ĠStud": 2242,
      "Ġevent": 2243,
      "Ġcourse": 2244,
      "Ġsatisf": 2245,
      "Ġport": 2246,
      "ured": 2247,
      "Ġcust": 2248,
      "Ġles": 2249,
      "lex": 2250,
      "elves": 2251,
      "Ġeth": 2252,
      "Ġtheory": 2253,
      "Ġmeet": 2254,
      "Ġarr": 2255,
      "Ġmanag": 2256,
      "Ġability": 2257,
      "Ġdecre": 2258,
      "Ġthird": 2259,
      "Ġspecial": 2260,
      "Ġden": 2261,
      "nal": 2262,
      "Ġscores": 2263,
      "Ġvalid": 2264,
      "Ġ25": 2265,
      "aps": 2266,
      "aut": 2267,
      "eter": 2268,
      "irst": 2269,
      "Ġdise": 2270,
      "Ġrelig": 2271,
      "As": 2272,
      "Ġtool": 2273,
      "Ġtowards": 2274,
      "Ġeff": 2275,
      "Ġincreasing": 2276,
      "val": 2277,
      "urban": 2278,
      "Ġonline": 2279,
      "ler": 2280,
      "Ġfar": 2281,
      "ights": 2282,
      "empt": 2283,
      "ĠReg": 2284,
      "Ġconcern": 2285,
      "Ġinternational": 2286,
      "Ġqual": 2287,
      "comes": 2288,
      "22": 2289,
      "rad": 2290,
      "Ġsuper": 2291,
      "Ġenergy": 2292,
      "self": 2293,
      "Ġeither": 2294,
      "Ġeas": 2295,
      "inally": 2296,
      "ape": 2297,
      "my": 2298,
      "Ġperformed": 2299,
      "Ġregion": 2300,
      "De": 2301,
      "Ġobtained": 2302,
      "ĠOne": 2303,
      "vent": 2304,
      "aced": 2305,
      "elt": 2306,
      "Ġmechan": 2307,
      "Ã¼": 2308,
      "Ġbre": 2309,
      "berg": 2310,
      "erson": 2311,
      "Ġmaking": 2312,
      "itude": 2313,
      "ises": 2314,
      "Ġdays": 2315,
      "Ġfinal": 2316,
      "stitut": 2317,
      "Ġmusic": 2318,
      "ugust": 2319,
      "ĠWorld": 2320,
      "Ġrange": 2321,
      "Ġstatus": 2322,
      "ĠCent": 2323,
      "pro": 2324,
      "Ġfull": 2325,
      "ĠComp": 2326,
      ",\"": 2327,
      "imate": 2328,
      "Ġimpl": 2329,
      "Ã¶": 2330,
      "augh": 2331,
      "Ġemp": 2332,
      "Ġenvironmental": 2333,
      "ole": 2334,
      "Ġvariable": 2335,
      "Ġque": 2336,
      "aring": 2337,
      "Ġgr": 2338,
      "Ġlat": 2339,
      "side": 2340,
      "Ġsustain": 2341,
      "Ġtaken": 2342,
      "mb": 2343,
      "rect": 2344,
      "ĠIf": 2345,
      "Ġidentified": 2346,
      "Ġopportun": 2347,
      "see": 2348,
      "ĠSu": 2349,
      "25": 2350,
      "Ġtarget": 2351,
      "Ġpersonal": 2352,
      "enc": 2353,
      "ĠAb": 2354,
      "pose": 2355,
      "Ġ2007": 2356,
      "Ġconstruct": 2357,
      "resp": 2358,
      "ĠHis": 2359,
      "ĠPol": 2360,
      "21": 2361,
      "eration": 2362,
      "lied": 2363,
      "ĠMe": 2364,
      "Ġrat": 2365,
      "Ġlittle": 2366,
      "Ġsomet": 2367,
      "Ġabs": 2368,
      "Ġdig": 2369,
      "Ġhere": 2370,
      "Ġ2021": 2371,
      "Ġvill": 2372,
      "more": 2373,
      "imal": 2374,
      "Ġrepl": 2375,
      "Ġdisord": 2376,
      "%)": 2377,
      "ĠâĢĵ": 2378,
      "ĠJu": 2379,
      "lying": 2380,
      "Ġhypothes": 2381,
      "Ġoutcomes": 2382,
      "Ġunc": 2383,
      "Ġadapt": 2384,
      "bum": 2385,
      "Ġsurvey": 2386,
      "Ġvo": 2387,
      "Ġcross": 2388,
      "Ġ24": 2389,
      "Ġidentify": 2390,
      "iÃ": 2391,
      "Ġheld": 2392,
      "Ġformer": 2393,
      "ĠCan": 2394,
      "Ġstimul": 2395,
      "Ġside": 2396,
      "Ġcompan": 2397,
      "Ġmedia": 2398,
      "ĠPr": 2399,
      "Ġprocesses": 2400,
      "Ġcompon": 2401,
      "Ġsepar": 2402,
      "Ġlook": 2403,
      "lege": 2404,
      "izing": 2405,
      "ĠGod": 2406,
      "Ġdistribution": 2407,
      "Ġhousehold": 2408,
      "Ġhij": 2409,
      "iber": 2410,
      "amb": 2411,
      "Ġpercent": 2412,
      "Ġcontent": 2413,
      "Ġissues": 2414,
      "Ġacad": 2415,
      "Ġgame": 2416,
      "ula": 2417,
      "iveness": 2418,
      "atives": 2419,
      "lo": 2420,
      "reng": 2421,
      "Ġstrategies": 2422,
      "Ġrece": 2423,
      "aining": 2424,
      "ublic": 2425,
      "ĠÏ": 2426,
      "most": 2427,
      "Ġals": 2428,
      "Ġbegan": 2429,
      "Ġmotiv": 2430,
      "Ġtypes": 2431,
      "Ġpay": 2432,
      "ĠSoc": 2433,
      "Ġ195": 2434,
      "pective": 2435,
      "rij": 2436,
      "uf": 2437,
      "elling": 2438,
      "Ġ2006": 2439,
      "Ġstatist": 2440,
      "ĠâĪ": 2441,
      "ĠIntern": 2442,
      "ĠĊ": 2443,
      "Ġreveal": 2444,
      "24": 2445,
      "Ġlog": 2446,
      "Ch": 2447,
      "Ġacqu": 2448,
      "Ġcultural": 2449,
      "gether": 2450,
      "Ġtogether": 2451,
      "Ġtown": 2452,
      "ptember": 2453,
      "Ġaff": 2454,
      "ĠChina": 2455,
      "Ġbuilding": 2456,
      "23": 2457,
      "ĠGe": 2458,
      "ĠSec": 2459,
      "Ġlimit": 2460,
      "Ġfri": 2461,
      "Ġpast": 2462,
      "Ġadminist": 2463,
      "Ġgender": 2464,
      "Ġcannot": 2465,
      "Ġinvolved": 2466,
      "come": 2467,
      "_,": 2468,
      "Ġintervention": 2469,
      "Ġkind": 2470,
      "Ġpoints": 2471,
      "aces": 2472,
      "ĠAccording": 2473,
      "Ġmultiple": 2474,
      "âĢĶ": 2475,
      "Ġquestionna": 2476,
      "Ġagree": 2477,
      "Ġrequire": 2478,
      "Ġcalcul": 2479,
      "Ġprimary": 2480,
      "Ġfail": 2481,
      "ĠMin": 2482,
      "Ġquant": 2483,
      "Ġdiv": 2484,
      "Ġpath": 2485,
      "inning": 2486,
      "Ġthems": 2487,
      "Ġincome": 2488,
      "tical": 2489,
      "ĠMar": 2490,
      "Ġurban": 2491,
      "Ġinteract": 2492,
      "Ġcustom": 2493,
      "ĠAss": 2494,
      "Ġlimited": 2495,
      "Ġcoun": 2496,
      "Ġrefer": 2497,
      "Ġdetail": 2498,
      "ĠMore": 2499,
      "ework": 2500,
      "----": 2501,
      "Ġthemselves": 2502,
      "Ġmeaning": 2503,
      "Ġestablished": 2504,
      "Ġclaim": 2505,
      "Ġanx": 2506,
      "Ġpromot": 2507,
      "Ġaud": 2508,
      "eed": 2509,
      "ĠNo": 2510,
      "Ġdegree": 2511,
      "inary": 2512,
      "Ġson": 2513,
      "pril": 2514,
      "cer": 2515,
      "ground": 2516,
      "Ġreflect": 2517,
      "Ġom": 2518,
      "ĠMed": 2519,
      "related": 2520,
      "Ġimportance": 2521,
      "Ġcentury": 2522,
      "ĠWar": 2523,
      "ĠAugust": 2524,
      "Ġpublished": 2525,
      "ixed": 2526,
      "Ġnever": 2527,
      "ĠGen": 2528,
      "ĠSchool": 2529,
      "Ġnatural": 2530,
      "ague": 2531,
      "Ġchalleng": 2532,
      "Ġbroad": 2533,
      "anuary": 2534,
      "Ġnecessary": 2535,
      "Ġproposed": 2536,
      "Ġcareer": 2537,
      "Ġled": 2538,
      "ese": 2539,
      "Ġlink": 2540,
      "cember": 2541,
      "Ġrequired": 2542,
      "Ġemerg": 2543,
      "Ġsay": 2544,
      "Ġhistor": 2545,
      "ray": 2546,
      "'t": 2547,
      "ĠGu": 2548,
      "itative": 2549,
      "Ġens": 2550,
      "Ġjud": 2551,
      "ĠInt": 2552,
      "ĠWith": 2553,
      "Ġsymptoms": 2554,
      "05": 2555,
      "ĠMarch": 2556,
      "ĠRep": 2557,
      "199": 2558,
      "Ġess": 2559,
      "Ġlab": 2560,
      "ĠSy": 2561,
      "Ġwhole": 2562,
      "Ġlocated": 2563,
      "Ġwon": 2564,
      "Ġsong": 2565,
      "uk": 2566,
      "Ġeffective": 2567,
      "Ġcamp": 2568,
      "Ġassessment": 2569,
      "Ġcame": 2570,
      "Ġattempt": 2571,
      "Ġcomput": 2572,
      "Ġtour": 2573,
      "isions": 2574,
      "Ġ*": 2575,
      "Ġansw": 2576,
      "Ġpractices": 2577,
      "Ġput": 2578,
      "ĠFurther": 2579,
      "Ġnear": 2580,
      "On": 2581,
      "ps": 2582,
      "ĠTherefore": 2583,
      "Ġtext": 2584,
      "Ġnext": 2585,
      "ceed": 2586,
      "rench": 2587,
      "Ġaction": 2588,
      "ards": 2589,
      "rep": 2590,
      "Ġcommit": 2591,
      "Ġclinical": 2592,
      "iency": 2593,
      "Ġear": 2594,
      "Ġplayed": 2595,
      "Ġevents": 2596,
      "Ġindustry": 2597,
      "ĠCount": 2598,
      "entions": 2599,
      "Ġalbum": 2600,
      "Ġachieve": 2601,
      "off": 2602,
      "Ġtax": 2603,
      "Ġcompanies": 2604,
      "ĠKing": 2605,
      "ots": 2606,
      "ynam": 2607,
      "Ġfeatures": 2608,
      "Ġlet": 2609,
      "Ġglobal": 2610,
      "ĠJanuary": 2611,
      "Ġeducational": 2612,
      "ership": 2613,
      "Ġviol": 2614,
      "Ġmother": 2615,
      "Ġyour": 2616,
      "Ġworks": 2617,
      "tic": 2618,
      "Ġspace": 2619,
      "aan": 2620,
      "Ġparents": 2621,
      "pri": 2622,
      "ĠThus": 2623,
      "Ġexpected": 2624,
      "Ġoriginal": 2625,
      "Ġcop": 2626,
      "ending": 2627,
      "Ġrespectively": 2628,
      "Ġstep": 2629,
      "Ġdu": 2630,
      "ĠState": 2631,
      "Ġoverall": 2632,
      "Ġloss": 2633,
      "ached": 2634,
      "Ġarch": 2635,
      "ĠOct": 2636,
      "Ġerr": 2637,
      "aches": 2638,
      "back": 2639,
      "Ġtit": 2640,
      "Âł": 2641,
      "Ġsociety": 2642,
      "respond": 2643,
      "Ġjob": 2644,
      "ule": 2645,
      "Ġstreng": 2646,
      "Ġprincip": 2647,
      "just": 2648,
      "bs": 2649,
      "Ġsense": 2650,
      "Ġproducts": 2651,
      "estern": 2652,
      "Ġcapt": 2653,
      "Ġna": 2654,
      "Ġalthough": 2655,
      "ĠEn": 2656,
      "ana": 2657,
      "Ġlight": 2658,
      "equ": 2659,
      "aries": 2660,
      "Ġhy": 2661,
      "Ġhold": 2662,
      "Ġele": 2663,
      "ĠJune": 2664,
      "ees": 2665,
      "ĠBy": 2666,
      "Ġrelevant": 2667,
      "Ġsem": 2668,
      "ĠMan": 2669,
      "medi": 2670,
      "Ġstates": 2671,
      "Ġexperiences": 2672,
      "Ġparam": 2673,
      "Ġcommunication": 2674,
      "Ġmember": 2675,
      "ĠCo": 2676,
      "part": 2677,
      "Ġschools": 2678,
      "ream": 2679,
      "SD": 2680,
      "ingu": 2681,
      "Ġ$": 2682,
      "ĠRuss": 2683,
      "Ġmarri": 2684,
      "ows": 2685,
      "Ġcy": 2686,
      "Ġliving": 2687,
      "rate": 2688,
      "Ġculture": 2689,
      "Ġimm": 2690,
      "Ġmonths": 2691,
      "Ġil": 2692,
      "ulations": 2693,
      "Ġregarding": 2694,
      "ĠSeptember": 2695,
      "Ġframework": 2696,
      "apan": 2697,
      "Ġmind": 2698,
      "Ġdoc": 2699,
      "ham": 2700,
      "lam": 2701,
      "cil": 2702,
      "ĠAustral": 2703,
      "Ġinteraction": 2704,
      "Ġfollowed": 2705,
      "Ġcome": 2706,
      "Ġwid": 2707,
      "ronic": 2708,
      "aj": 2709,
      "ĠJuly": 2710,
      "Ġrespondents": 2711,
      "Ġmedical": 2712,
      "Ġalways": 2713,
      "pite": 2714,
      "anced": 2715,
      "Ġdimens": 2716,
      "Ġenh": 2717,
      "rug": 2718,
      "ĠNorth": 2719,
      "Ġperceived": 2720,
      "Ġcell": 2721,
      "Ġselected": 2722,
      "Ġ2005": 2723,
      "ĠMet": 2724,
      "VID": 2725,
      "erk": 2726,
      "ev": 2727,
      "Ġsubst": 2728,
      "Ġten": 2729,
      "ĠOctober": 2730,
      "Ġbrain": 2731,
      "Ġaddress": 2732,
      "ndom": 2733,
      "Ġreleased": 2734,
      "Ġce": 2735,
      "che": 2736,
      "ĠSw": 2737,
      "dle": 2738,
      "Ġvisual": 2739,
      "Ġsaf": 2740,
      "Ġtoo": 2741,
      "Ġ193": 2742,
      "SS": 2743,
      "Ġanalyses": 2744,
      "ecut": 2745,
      "Ġdefined": 2746,
      ");": 2747,
      "isation": 2748,
      "ĠApril": 2749,
      "aged": 2750,
      "Ġband": 2751,
      "ha": 2752,
      "Ġbuilt": 2753,
      "26": 2754,
      "acc": 2755,
      "Ġscient": 2756,
      "Ġrev": 2757,
      "ille": 2758,
      "Ġparticularly": 2759,
      "ney": 2760,
      "ready": 2761,
      "ead": 2762,
      "Ġfemale": 2763,
      "ĠEuropean": 2764,
      "ĠPar": 2765,
      "yle": 2766,
      "Ġamount": 2767,
      "hens": 2768,
      "Ġindependent": 2769,
      "ovember": 2770,
      "know": 2771,
      "eren": 2772,
      "Ġve": 2773,
      "ĠDecember": 2774,
      "ĠWhile": 2775,
      "Ġaccur": 2776,
      "ĠBritish": 2777,
      "arily": 2778,
      "ultural": 2779,
      "Ġapplied": 2780,
      "eth": 2781,
      "Ġdest": 2782,
      "28": 2783,
      "urity": 2784,
      "Ġgive": 2785,
      "Ġ2000": 2786,
      "uth": 2787,
      "Ġpatient": 2788,
      "Ġanxiety": 2789,
      "ta": 2790,
      "Ġrecent": 2791,
      "27": 2792,
      "Ġresponses": 2793,
      "Ġstrategy": 2794,
      "Ġproced": 2795,
      "Ġface": 2796,
      "Ġaspects": 2797,
      "Ġdepression": 2798,
      "ĠYork": 2799,
      "ensity": 2800,
      "ĠFrench": 2801,
      "Ġprec": 2802,
      "Ġhalf": 2803,
      "Ġcollect": 2804,
      "ux": 2805,
      "ĠAg": 2806,
      "Ġmaintain": 2807,
      "Ġsw": 2808,
      "Ġstage": 2809,
      "Ġair": 2810,
      "Ġeffic": 2811,
      "rans": 2812,
      "ographic": 2813,
      "Ġ23": 2814,
      "Ġteacher": 2815,
      "Ġrelationships": 2816,
      "Ġmention": 2817,
      "ĠAlthough": 2818,
      "Ġdiagn": 2819,
      "rams": 2820,
      "Ġcarried": 2821,
      "ided": 2822,
      "Ġpoor": 2823,
      "Ġcapac": 2824,
      "Ġjo": 2825,
      "Ġemotional": 2826,
      "Ġpo": 2827,
      "Ġcorrespond": 2828,
      "Ġ50": 2829,
      "Ġcontinu": 2830,
      "rs": 2831,
      "Ġregions": 2832,
      "Ġadditional": 2833,
      "oon": 2834,
      "Ġappe": 2835,
      "cht": 2836,
      "He": 2837,
      "Ġpress": 2838,
      "Ġinstru": 2839,
      "Ġvir": 2840,
      "Ġrandom": 2841,
      "29": 2842,
      "Ġwant": 2843,
      "Ġprovides": 2844,
      "Ġfather": 2845,
      "ĠJapan": 2846,
      "Ġalready": 2847,
      "Ġdigital": 2848,
      "ĠNovember": 2849,
      "ĠItal": 2850,
      "Ġconfir": 2851,
      "Ġsection": 2852,
      "Ġcosts": 2853,
      "Ġacademic": 2854,
      "etic": 2855,
      "Ġcit": 2856,
      "lation": 2857,
      "ĠCOVID": 2858,
      "Al": 2859,
      "Ġfree": 2860,
      "ched": 2861,
      "Ġreli": 2862,
      "Ġ21": 2863,
      "Ġsubjects": 2864,
      "Ġcreated": 2865,
      "Ġconsequ": 2866,
      "Ġitself": 2867,
      "Ġsett": 2868,
      "play": 2869,
      "Ġground": 2870,
      "Ġfarm": 2871,
      "lands": 2872,
      "rial": 2873,
      "Ġsituation": 2874,
      "men": 2875,
      "Ġfit": 2876,
      "Ġbecom": 2877,
      "sp": 2878,
      "Ġhapp": 2879,
      "Ġenter": 2880,
      "Ġrad": 2881,
      "Ġord": 2882,
      "ieved": 2883,
      "Ġgradu": 2884,
      "Ġhimself": 2885,
      "Ġstation": 2886,
      "Ġcorrelation": 2887,
      "light": 2888,
      "Ã¨": 2889,
      "ĠCor": 2890,
      "Ġauthors": 2891,
      "Ġwritten": 2892,
      "icit": 2893,
      "Ġdon": 2894,
      "ĠPer": 2895,
      "Ġasked": 2896,
      "Ġsector": 2897,
      "phas": 2898,
      "Ġ2004": 2899,
      "Ġlearn": 2900,
      "Ġcontrast": 2901,
      "ii": 2902,
      "AR": 2903,
      "ĠCar": 2904,
      "ira": 2905,
      "ĠQu": 2906,
      "Ġtraditional": 2907,
      "Ġmodern": 2908,
      "Ġdisease": 2909,
      "Ġcritical": 2910,
      "Ġaltern": 2911,
      "bo": 2912,
      "ternal": 2913,
      "Ġorganization": 2914,
      "Ġserved": 2915,
      "ige": 2916,
      "ulated": 2917,
      "inese": 2918,
      "earch": 2919,
      "Ġarticle": 2920,
      "Ġvide": 2921,
      "Ġdone": 2922,
      "wo": 2923,
      "Ġbr": 2924,
      "Ġrul": 2925,
      "Ġsuccessful": 2926,
      "Ġassist": 2927,
      "Ġcentral": 2928,
      "Ġ100": 2929,
      "igen": 2930,
      "rown": 2931,
      "term": 2932,
      "Ġfoot": 2933,
      "atial": 2934,
      "illed": 2935,
      "iment": 2936,
      "Ġeer": 2937,
      "ensive": 2938,
      "Ġimplementation": 2939,
      "Î±": 2940,
      "Ġpsychological": 2941,
      "ĠGerman": 2942,
      "ĠFirst": 2943,
      "org": 2944,
      "Ġresearchers": 2945,
      "ĠBra": 2946,
      "Ġclear": 2947,
      "ĠWest": 2948,
      "Ġprivate": 2949,
      "Ġemb": 2950,
      "Ġcov": 2951,
      "Ġpurpose": 2952,
      "osis": 2953,
      "Ġ26": 2954,
      "Ġcover": 2955,
      "Ġweek": 2956,
      "Ġbelow": 2957,
      "face": 2958,
      "Ġversion": 2959,
      "Ġnar": 2960,
      "Ġmillion": 2961,
      "Ġdynam": 2962,
      "Ġactive": 2963,
      "oney": 2964,
      "iles": 2965,
      "ospital": 2966,
      "There": 2967,
      "iat": 2968,
      "Ġmemory": 2969,
      "ctions": 2970,
      "Ġassociation": 2971,
      "Ġbur": 2972,
      "Ġcriteria": 2973,
      "go": 2974,
      "Ġolder": 2975,
      "Ġestablish": 2976,
      "Ġshare": 2977,
      "Ġrecomm": 2978,
      "ett": 2979,
      "We": 2980,
      "asons": 2981,
      "Ġfeed": 2982,
      "Ġscience": 2983,
      "ivil": 2984,
      "Ġfav": 2985,
      "oe": 2986,
      "For": 2987,
      "Ġconstruction": 2988,
      "CT": 2989,
      "ĠFrom": 2990,
      "Ġprice": 2991,
      "ebru": 2992,
      "Ġmaxim": 2993,
      "Ġyet": 2994,
      "Ġanalyz": 2995,
      "ĠFig": 2996,
      "ography": 2997,
      "Ġappropri": 2998,
      "Ġful": 2999,
      "Ġonce": 3000,
      "ches": 3001,
      "ada": 3002,
      "Ġborn": 3003,
      "Ġclos": 3004,
      "Ġsess": 3005,
      "Ġjour": 3006,
      "Ġbij": 3007,
      "cle": 3008,
      "Ġweight": 3009,
      "Ġthought": 3010,
      "ĠCity": 3011,
      "Ġforms": 3012,
      "yl": 3013,
      "Ġclub": 3014,
      "ebruary": 3015,
      "hel": 3016,
      "ops": 3017,
      "uit": 3018,
      "Ġaware": 3019,
      "Ġevaluation": 3020,
      "Ġproduced": 3021,
      "alt": 3022,
      "ĠWill": 3023,
      "40": 3024,
      "Ġrates": 3025,
      "Ġ28": 3026,
      "Ġ(\"": 3027,
      "duc": 3028,
      "Ġfall": 3029,
      "Ġneeded": 3030,
      "inn": 3031,
      "Ġnamed": 3032,
      "Ġincludes": 3033,
      "ĠBar": 3034,
      "ka": 3035,
      "que": 3036,
      "Ġwent": 3037,
      "Ġbasis": 3038,
      "ened": 3039,
      "artment": 3040,
      "rote": 3041,
      "atch": 3042,
      "Ġvia": 3043,
      "ĠSim": 3044,
      "ĠChinese": 3045,
      "Ġ2022": 3046,
      "Ġ27": 3047,
      "ius": 3048,
      "Ġdefin": 3049,
      "Ġsle": 3050,
      "Ġcr": 3051,
      "Ġtransport": 3052,
      "Ġfa": 3053,
      "Ġindex": 3054,
      "ĠâĢ¢": 3055,
      "Ġdistin": 3056,
      "ologies": 3057,
      "Ġwhose": 3058,
      "Ġoccup": 3059,
      "ĠEl": 3060,
      "ino": 3061,
      "dom": 3062,
      "icro": 3063,
      "Ġentire": 3064,
      "irit": 3065,
      "Ġwin": 3066,
      "Ġsumm": 3067,
      "Ġlegal": 3068,
      "ift": 3069,
      "irl": 3070,
      "Ġunivers": 3071,
      "ĠÃł": 3072,
      "ĠOur": 3073,
      "Ġcorrect": 3074,
      "Ġdou": 3075,
      "Ġplat": 3076,
      "Ġinterpret": 3077,
      "Ġemphas": 3078,
      "ende": 3079,
      "ressive": 3080,
      "Ġcoe": 3081,
      "Ġinternal": 3082,
      "ĠFebruary": 3083,
      "encies": 3084,
      "Ġcollabor": 3085,
      "Ġ2003": 3086,
      "ĠPre": 3087,
      "Ġlate": 3088,
      "Ġthings": 3089,
      "formation": 3090,
      "Ġsuff": 3091,
      "Ġnorth": 3092,
      "la": 3093,
      "Ġregression": 3094,
      "Ġelements": 3095,
      "aging": 3096,
      "Ġways": 3097,
      "Ġavoid": 3098,
      "ĠDes": 3099,
      "Ġpresence": 3100,
      "ifically": 3101,
      "Ġattribut": 3102,
      "Ġvillage": 3103,
      "ES": 3104,
      "AS": 3105,
      "Wh": 3106,
      "ications": 3107,
      "Ġalmost": 3108,
      "Ġcollection": 3109,
      "rative": 3110,
      "II": 3111,
      "Ġrights": 3112,
      "Ġdetermine": 3113,
      "Ġaway": 3114,
      "Ġseem": 3115,
      "Ġfollows": 3116,
      "Ġgenerally": 3117,
      "andemic": 3118,
      "Ġlarger": 3119,
      "ges": 3120,
      "Ġcontract": 3121,
      "Ġtend": 3122,
      "Ġexisting": 3123,
      "Ġresid": 3124,
      "Ġphen": 3125,
      "Ġcapacity": 3126,
      "IS": 3127,
      "Ġfront": 3128,
      "eters": 3129,
      "Ġfeature": 3130,
      "ani": 3131,
      "ume": 3132,
      "Ġconflic": 3133,
      "Ġadol": 3134,
      "Ġbank": 3135,
      "luded": 3136,
      "ming": 3137,
      "Ġspecies": 3138,
      "unt": 3139,
      "Ġtasks": 3140,
      "lusion": 3141,
      "Ġhous": 3142,
      "iers": 3143,
      "ĠDuring": 3144,
      "Ġindicated": 3145,
      "Ġsold": 3146,
      "reek": 3147,
      "uration": 3148,
      "Ġmale": 3149,
      "ï¼": 3150,
      "ER": 3151,
      "itation": 3152,
      "Ġindicate": 3153,
      "Ġissue": 3154,
      "year": 3155,
      "Ġhom": 3156,
      "Ġhighest": 3157,
      "reet": 3158,
      "ĠEd": 3159,
      "aily": 3160,
      "ara": 3161,
      "Ġdirectly": 3162,
      "igned": 3163,
      "Ġquestionnaire": 3164,
      "Ġmeasured": 3165,
      "Ġrevealed": 3166,
      "ĠMa": 3167,
      "eline": 3168,
      "ĠCal": 3169,
      "ĠHer": 3170,
      "aren": 3171,
      "rehens": 3172,
      "Ġmovement": 3173,
      "Ġcred": 3174,
      "Ġtravel": 3175,
      "Ġperspective": 3176,
      "Ġfacilit": 3177,
      "Ġinnovation": 3178,
      "test": 3179,
      "Ġshall": 3180,
      "Ġexerc": 3181,
      "Ġworkers": 3182,
      "elijke": 3183,
      "olic": 3184,
      "inated": 3185,
      "Ġdeveloping": 3186,
      "Ġtaking": 3187,
      "Ġmob": 3188,
      "Ġroad": 3189,
      "Ġcause": 3190,
      "Ġ22": 3191,
      "Ġmilit": 3192,
      "Ġcou": 3193,
      "ĠMal": 3194,
      "Ġparticipation": 3195,
      "anks": 3196,
      "Ġinstitutions": 3197,
      "Î½": 3198,
      "Ġx": 3199,
      "Ġemployees": 3200,
      "Ġdecl": 3201,
      "Ġagric": 3202,
      "enced": 3203,
      "erve": 3204,
      "Ġscen": 3205,
      "Ġdesigned": 3206,
      "Ġinitial": 3207,
      "ighb": 3208,
      "ische": 3209,
      "Ġsou": 3210,
      "elijk": 3211,
      "Ġdied": 3212,
      "ger": 3213,
      "ged": 3214,
      "uten": 3215,
      "ĠGra": 3216,
      "Ġprograms": 3217,
      "Ġprocessing": 3218,
      "Ġtrade": 3219,
      "Ġgoal": 3220,
      "ription": 3221,
      "ously": 3222,
      "Ġdistance": 3223,
      "alys": 3224,
      "Ġbehaviour": 3225,
      "Ġreduce": 3226,
      "conomic": 3227,
      "ĠMod": 3228,
      "Ġec": 3229,
      "ampions": 3230,
      "Ġclose": 3231,
      "ĠDep": 3232,
      "Ġhard": 3233,
      "ĠEngland": 3234,
      "ength": 3235,
      "Ġsouth": 3236,
      "Ġrural": 3237,
      "Ġsource": 3238,
      "izes": 3239,
      "ĠâĪĴ": 3240,
      "Ġattack": 3241,
      "Ġonder": 3242,
      "Ġconsumption": 3243,
      "Ġstated": 3244,
      "cast": 3245,
      "Ġstaff": 3246,
      "ĠAct": 3247,
      "Ġneuro": 3248,
      "Ġbenefits": 3249,
      "rought": 3250,
      "Ġvict": 3251,
      "Ġwind": 3252,
      "osure": 3253,
      "Ġapplication": 3254,
      "ades": 3255,
      "Ġproport": 3256,
      "ipl": 3257,
      "ondon": 3258,
      "Ġmajority": 3259,
      "Ġsatisfaction": 3260,
      "ĠSome": 3261,
      "Ġeconomy": 3262,
      "ĠCounty": 3263,
      "Ġhighly": 3264,
      "odes": 3265,
      "Ġbelief": 3266,
      "ĠMc": 3267,
      "Ġ2002": 3268,
      "Ġ40": 3269,
      "ĠBo": 3270,
      "Ġcompleted": 3271,
      "ferences": 3272,
      "Ġpopular": 3273,
      "Ġsupply": 3274,
      "35": 3275,
      "Ġcreate": 3276,
      "Ġwriting": 3277,
      "Ġ)": 3278,
      "ĠDist": 3279,
      "Ġpandemic": 3280,
      "omb": 3281,
      "Ġreduced": 3282,
      "Ġfirm": 3283,
      "Ġnovel": 3284,
      "Ġsubsequ": 3285,
      "Ġadvant": 3286,
      "Ġcollected": 3287,
      "ÃŃ": 3288,
      "Ġprevent": 3289,
      "iction": 3290,
      "Ġdistrict": 3291,
      "Ġstarted": 3292,
      "Ġclust": 3293,
      "Ġpreviously": 3294,
      "itor": 3295,
      "Ġ+": 3296,
      "bal": 3297,
      "ĠHealth": 3298,
      "Ġuniversity": 3299,
      "ĠTra": 3300,
      "Ġusers": 3301,
      "ĠGovern": 3302,
      "Ġrelation": 3303,
      "ounced": 3304,
      "Ġ29": 3305,
      "vere": 3306,
      "ament": 3307,
      "Ġexecut": 3308,
      "However": 3309,
      "aving": 3310,
      "Ġsite": 3311,
      "umb": 3312,
      "ĠResearch": 3313,
      "33": 3314,
      "Ġchallenges": 3315,
      "isms": 3316,
      "Ġspeak": 3317,
      "irection": 3318,
      "Ġrelative": 3319,
      "irth": 3320,
      "Ġ2001": 3321,
      "cial": 3322,
      "ĠApp": 3323,
      "iff": 3324,
      "ky": 3325,
      "Ġprotect": 3326,
      "ĠMus": 3327,
      "Ġspatial": 3328,
      "__": 3329,
      "attle": 3330,
      "Ġcomplete": 3331,
      "Ġadults": 3332,
      "Ġsexual": 3333,
      "Ġearl": 3334,
      "lim": 3335,
      "itudes": 3336,
      "._": 3337,
      "ĠData": 3338,
      "Ġfrequency": 3339,
      "Ġlay": 3340,
      "Ġleading": 3341,
      "rary": 3342,
      "Ġplatform": 3343,
      "ald": 3344,
      "Ġsuggested": 3345,
      "Ġidea": 3346,
      "Ġforeign": 3347,
      "Ã³": 3348,
      "Ġbound": 3349,
      "ĠCons": 3350,
      "Ġdraw": 3351,
      "ĠNe": 3352,
      "Ġscreen": 3353,
      "set": 3354,
      "Ġgreen": 3355,
      "ĠFrance": 3356,
      "Ġmig": 3357,
      "Ġsuggests": 3358,
      "iated": 3359,
      "Ġrecorded": 3360,
      "osition": 3361,
      "rant": 3362,
      "Ġencou": 3363,
      "abit": 3364,
      "60": 3365,
      "Ġstory": 3366,
      "being": 3367,
      "Ġlonger": 3368,
      "Ġreading": 3369,
      "Ġsources": 3370,
      "Ġextent": 3371,
      "Ġneighb": 3372,
      "ĠHar": 3373,
      "Ġey": 3374,
      "Ġinterventions": 3375,
      "Ġrelatively": 3376,
      "Ġpatterns": 3377,
      "istory": 3378,
      "Ġutil": 3379,
      "Ġlabor": 3380,
      "Ġmakes": 3381,
      "Ġkeep": 3382,
      "Ġmar": 3383,
      "Ġtrial": 3384,
      "Ġessential": 3385,
      "Ġsqu": 3386,
      "Ġillust": 3387,
      "aul": 3388,
      "Ġadjust": 3389,
      "care": 3390,
      "Ġred": 3391,
      "Ġtrend": 3392,
      "tee": 3393,
      "rew": 3394,
      "Ġmass": 3395,
      "mission": 3396,
      "room": 3397,
      "MS": 3398,
      "Ġmoder": 3399,
      "ĠBr": 3400,
      "Ġeight": 3401,
      "Ġproviding": 3402,
      "Ġtransfer": 3403,
      "Ġpolicies": 3404,
      "ĠInternational": 3405,
      "ios": 3406,
      "ĠGl": 3407,
      "ĠHigh": 3408,
      "ĠPe": 3409,
      "Ġdivid": 3410,
      "rest": 3411,
      "Ġphase": 3412,
      "ĠLondon": 3413,
      "ĠFurthermore": 3414,
      "Ġcommand": 3415,
      "Ġusually": 3416,
      "Ġexternal": 3417,
      "ensch": 3418,
      "IV": 3419,
      "Ġtrue": 3420,
      "ĠSecond": 3421,
      "Ġinvestment": 3422,
      "Ġmainly": 3423,
      "Ġsum": 3424,
      "yr": 3425,
      "level": 3426,
      "za": 3427,
      "bon": 3428,
      "asc": 3429,
      "Ġsequ": 3430,
      "Ġgave": 3431,
      "Ġnoted": 3432,
      "CA": 3433,
      "ancy": 3434,
      "Ġtheore": 3435,
      "ĠLa": 3436,
      "Ġoutcome": 3437,
      "Ġmentioned": 3438,
      "Ġestimated": 3439,
      "Ġlive": 3440,
      "Ġdam": 3441,
      "Ġparts": 3442,
      "roduction": 3443,
      "Ġthroughout": 3444,
      "Ġgoals": 3445,
      "Ġnormal": 3446,
      "ĠYou": 3447,
      "Ġhypothesis": 3448,
      "Ġrob": 3449,
      "ĠIndia": 3450,
      "Ġdrug": 3451,
      "Ġforce": 3452,
      "ero": 3453,
      "An": 3454,
      "Ġminim": 3455,
      "Ġparty": 3456,
      "eli": 3457,
      "ĠFl": 3458,
      "ogen": 3459,
      "Î¿": 3460,
      "ening": 3461,
      "Ġoutside": 3462,
      "Ġseems": 3463,
      "Ġwhom": 3464,
      "Ġround": 3465,
      "Ġreligious": 3466,
      "sec": 3467,
      "itect": 3468,
      "Ġheav": 3469,
      "mon": 3470,
      "Ġfocused": 3471,
      "ension": 3472,
      "Ġmoney": 3473,
      "Ġappoint": 3474,
      "Ġcommunities": 3475,
      "Ġagg": 3476,
      "Ġtrials": 3477,
      "Ġappropriate": 3478,
      "Ġsearch": 3479,
      "rene": 3480,
      "Ġexpress": 3481,
      "ufact": 3482,
      "36": 3483,
      "Ġchurch": 3484,
      "Ġofficial": 3485,
      "Ġconsistent": 3486,
      "Ġhon": 3487,
      "Ġregular": 3488,
      "Ġbal": 3489,
      "Ġpurch": 3490,
      "Ġapproaches": 3491,
      "ĠRec": 3492,
      "Ġcomparison": 3493,
      "Ġsound": 3494,
      "34": 3495,
      "Ġcomprehens": 3496,
      "Ġship": 3497,
      "Ġsoft": 3498,
      "unicip": 3499,
      "Ġtests": 3500,
      "ĠÃ©": 3501,
      "yond": 3502,
      "Ġ189": 3503,
      "Ġdeal": 3504,
      "eder": 3505,
      "Ġdaily": 3506,
      "Ġaf": 3507,
      "Ġhost": 3508,
      "icht": 3509,
      "rab": 3510,
      "Ġactions": 3511,
      "Ġapproxim": 3512,
      "Ġcontinued": 3513,
      "Ġtrust": 3514,
      "ech": 3515,
      "Ġste": 3516,
      "ï¼Į": 3517,
      "lin": 3518,
      "ĠMoreover": 3519,
      "ford": 3520,
      "Ġclimate": 3521,
      "Ġfirms": 3522,
      "%,": 3523,
      "Ġscientific": 3524,
      "Ġmanufact": 3525,
      "Ġaffected": 3526,
      "Ġtempor": 3527,
      "ĠBel": 3528,
      "iting": 3529,
      "Ġinstance": 3530,
      "Ġcalculated": 3531,
      "Ġefficiency": 3532,
      "oyal": 3533,
      "airs": 3534,
      "rence": 3535,
      "iar": 3536,
      "atal": 3537,
      "Ġwet": 3538,
      "oud": 3539,
      "Ġguid": 3540,
      "iter": 3541,
      "Ġple": 3542,
      "Ġconstitut": 3543,
      "Ġanim": 3544,
      "Ġlength": 3545,
      "80": 3546,
      "ĠRo": 3547,
      "rapy": 3548,
      "ensus": 3549,
      "inant": 3550,
      "Ġplanning": 3551,
      "Ġsurv": 3552,
      "like": 3553,
      "Ġperception": 3554,
      "erous": 3555,
      "Ġmiss": 3556,
      "Ġcru": 3557,
      "hemat": 3558,
      "Ġfamilies": 3559,
      "Ġsleep": 3560,
      "change": 3561,
      ".)": 3562,
      "\")": 3563,
      "ties": 3564,
      "Ġregional": 3565,
      "Ġchoice": 3566,
      "Ġexperiment": 3567,
      "37": 3568,
      "Ġmoved": 3569,
      "Ġimmedi": 3570,
      "Ġstudied": 3571,
      "icipants": 3572,
      "Ġrank": 3573,
      "Ġexhib": 3574,
      "Ġinstead": 3575,
      "Ġadded": 3576,
      "Ġze": 3577,
      "Ġmis": 3578,
      "Ġcort": 3579,
      "ridge": 3580,
      "Ġtrad": 3581,
      "Ġdetermined": 3582,
      "onom": 3583,
      "ĠWilliam": 3584,
      "utes": 3585,
      "Ġdocument": 3586,
      "ĠAfrica": 3587,
      "cont": 3588,
      "ĠPhil": 3589,
      "ĠCoun": 3590,
      "Ġidentity": 3591,
      "ĠChurch": 3592,
      "Ġenterpr": 3593,
      "Ġcontact": 3594,
      "Ġgeb": 3595,
      "....": 3596,
      "time": 3597,
      "Ġsupported": 3598,
      "uz": 3599,
      "ym": 3600,
      "astic": 3601,
      "Ġempir": 3602,
      "ĠAc": 3603,
      "Ġ190": 3604,
      "ĠSo": 3605,
      "Ġschol": 3606,
      "Ġexplan": 3607,
      "38": 3608,
      "Ġincor": 3609,
      "Ġbehaviors": 3610,
      "Ġvideo": 3611,
      "Ġcategories": 3612,
      "Ġopin": 3613,
      "Ġinvolve": 3614,
      "Ġindicates": 3615,
      "Ġphenomen": 3616,
      "Ġletter": 3617,
      "Ġmaterials": 3618,
      "Ġwhite": 3619,
      "ĠHet": 3620,
      "Ġmatch": 3621,
      "ampionship": 3622,
      "Ġmatter": 3623,
      "ters": 3624,
      "mitted": 3625,
      "Ġetc": 3626,
      "Ġlocation": 3627,
      "nic": 3628,
      "aat": 3629,
      "reprene": 3630,
      "ĠPark": 3631,
      "Ġfinding": 3632,
      "hern": 3633,
      "Ġparticipant": 3634,
      "Ġorganizations": 3635,
      "Ġexperienced": 3636,
      "iques": 3637,
      "Ġstrength": 3638,
      "gor": 3639,
      "ellig": 3640,
      "oper": 3641,
      "Ġbrought": 3642,
      "Ġking": 3643,
      "itable": 3644,
      "Ġdiscussion": 3645,
      "Ġworked": 3646,
      "Ġbasic": 3647,
      "gra": 3648,
      "Ġflow": 3649,
      "ros": 3650,
      "Ġsus": 3651,
      "Ġcaused": 3652,
      "och": 3653,
      "Ġdivers": 3654,
      "ĠCour": 3655,
      "ought": 3656,
      "Ġdecisions": 3657,
      "RI": 3658,
      "Ġrepe": 3659,
      "rient": 3660,
      "Ġmom": 3661,
      "Ġsal": 3662,
      "ki": 3663,
      "ĠPres": 3664,
      "AT": 3665,
      "31": 3666,
      "Ġspirit": 3667,
      "ĠEm": 3668,
      "Ġsignificance": 3669,
      "Ġgames": 3670,
      "Ġformed": 3671,
      "Ġlost": 3672,
      "band": 3673,
      "Ġexamined": 3674,
      "new": 3675,
      "aint": 3676,
      "Ġsocio": 3677,
      "Ġreasons": 3678,
      "45": 3679,
      "ĠHouse": 3680,
      "clus": 3681,
      "Ġconv": 3682,
      "Ġcut": 3683,
      "alysis": 3684,
      "Ġtoward": 3685,
      "Ġbelong": 3686,
      "ites": 3687,
      "Ġbeginning": 3688,
      "anish": 3689,
      "Ġcomponents": 3690,
      "39": 3691,
      "Ġstatistical": 3692,
      "ocr": 3693,
      "ĠEduc": 3694,
      "Ġinput": 3695,
      "ĠGeneral": 3696,
      "ster": 3697,
      "Ġopportunities": 3698,
      "ĠEast": 3699,
      "arian": 3700,
      "Ġengine": 3701,
      "Ġthreat": 3702,
      "ĠPort": 3703,
      "rem": 3704,
      "32": 3705,
      "ijd": 3706,
      "Ġappeared": 3707,
      "Ġuseful": 3708,
      "Ġdirection": 3709,
      "Ġpreval": 3710,
      "Ġhor": 3711,
      "Ġexplained": 3712,
      "ĠProject": 3713,
      "Ġselection": 3714,
      "Ġconcent": 3715,
      "ĠChar": 3716,
      "Ġimage": 3717,
      "Ġcivil": 3718,
      "Ġunit": 3719,
      "Ġnaar": 3720,
      "Ġseven": 3721,
      "Ġallowed": 3722,
      "Ġfear": 3723,
      "pid": 3724,
      "Ġbase": 3725,
      "Ġindicators": 3726,
      "ĠAng": 3727,
      "Ġensure": 3728,
      "fect": 3729,
      "Ġfriends": 3730,
      "Ġir": 3731,
      "lig": 3732,
      "Ġremains": 3733,
      "Ġdisorders": 3734,
      "Ġlatter": 3735,
      "Ġinterviews": 3736,
      "Ġmilitary": 3737,
      "Ġincreases": 3738,
      "ĠMor": 3739,
      "pper": 3740,
      "Ġheart": 3741,
      "used": 3742,
      "mental": 3743,
      "ĠRiver": 3744,
      "Ġrang": 3745,
      "Ġfunctions": 3746,
      "born": 3747,
      "Ġenough": 3748,
      "Ġtools": 3749,
      "ĠVal": 3750,
      "ĠTur": 3751,
      "Ġstra": 3752,
      "Ġefforts": 3753,
      "Ġwhereas": 3754,
      "001": 3755,
      "ils": 3756,
      "ey": 3757,
      "Ġratio": 3758,
      "Ġprojects": 3759,
      "rec": 3760,
      "Ġook": 3761,
      "ĠInstitut": 3762,
      "Ġpercept": 3763,
      "Ġhighlight": 3764,
      "ords": 3765,
      "Î¹": 3766,
      "ĠSm": 3767,
      "Ġreference": 3768,
      "ĠCollege": 3769,
      "Ġengagement": 3770,
      "Ġseek": 3771,
      "emy": 3772,
      "nam": 3773,
      "semb": 3774,
      "Ġvirt": 3775,
      "Ġbes": 3776,
      "ĠRoman": 3777,
      "70": 3778,
      "Ġmicro": 3779,
      "Ġwrote": 3780,
      "Ġadolesc": 3781,
      "aves": 3782,
      "Table": 3783,
      "su": 3784,
      "Ġcities": 3785,
      "ĠNet": 3786,
      "lear": 3787,
      "NA": 3788,
      "Ġdisplay": 3789,
      "Ġposit": 3790,
      "Ġwhy": 3791,
      "Ġanalyzed": 3792,
      "ĠLeague": 3793,
      "uel": 3794,
      "Ġexpression": 3795,
      "Ġintroduced": 3796,
      "abilities": 3797,
      "Ġreduction": 3798,
      "CC": 3799,
      "orthern": 3800,
      "tion": 3801,
      "Ġparameters": 3802,
      "Ġbeyond": 3803,
      "Ġpict": 3804,
      "ano": 3805,
      "ĠInter": 3806,
      "ĠAnt": 3807,
      "pen": 3808,
      "rage": 3809,
      "ĠCont": 3810,
      "Ġdeep": 3811,
      "ifest": 3812,
      "ĠMon": 3813,
      "Ġcitiz": 3814,
      "itch": 3815,
      "Ġdiscussed": 3816,
      "Ġgirl": 3817,
      "rief": 3818,
      "Ġmotor": 3819,
      "Ġ1990": 3820,
      "ĠGermany": 3821,
      "ĠAfrican": 3822,
      "Ġassessed": 3823,
      "Ġrepresented": 3824,
      "Ġwaar": 3825,
      "Ġremained": 3826,
      "Ġplaced": 3827,
      "Ġremain": 3828,
      "Ġmotivation": 3829,
      "Ġreturned": 3830,
      "Ġtable": 3831,
      "Ġmach": 3832,
      "Ġhospital": 3833,
      "uw": 3834,
      "reed": 3835,
      "istry": 3836,
      "eks": 3837,
      "Ġniet": 3838,
      "ĠIndian": 3839,
      "Ġexamine": 3840,
      "Ġemployed": 3841,
      "point": 3842,
      "va": 3843,
      "Ġtesting": 3844,
      "Ġnight": 3845,
      "order": 3846,
      "ĠPat": 3847,
      "Ġthinking": 3848,
      "Ġanc": 3849,
      "Ġinj": 3850,
      "bl": 3851,
      "Ġpric": 3852,
      "Ġnaam": 3853,
      "ying": 3854,
      "ĠAD": 3855,
      "ĠCouncil": 3856,
      "ĠThat": 3857,
      "Ġmiddle": 3858,
      "Ġfire": 3859,
      "estic": 3860,
      "Ġsomething": 3861,
      "Ġmarried": 3862,
      "Ġprem": 3863,
      "ask": 3864,
      "tra": 3865,
      "Ġamb": 3866,
      "antic": 3867,
      "osing": 3868,
      "ĠFinally": 3869,
      "Ġbring": 3870,
      "mark": 3871,
      "Ġphil": 3872,
      "ĠIm": 3873,
      "ĠDav": 3874,
      "Ġblack": 3875,
      "rying": 3876,
      "Ġbar": 3877,
      "gorith": 3878,
      "Ġpartners": 3879,
      "ĠSince": 3880,
      "thern": 3881,
      "Ġdoct": 3882,
      "Ġcategory": 3883,
      "uments": 3884,
      "idae": 3885,
      "Ġstyle": 3886,
      "Ġtro": 3887,
      "Ġremov": 3888,
      "Ġbirth": 3889,
      "Ġdeliver": 3890,
      "ĠUK": 3891,
      "ĠChristian": 3892,
      "Ġagreement": 3893,
      "Ġattract": 3894,
      "Ġformula": 3895,
      "Ġgrand": 3896,
      "Ġsustainable": 3897,
      "Ġuses": 3898,
      "Ġbackground": 3899,
      "Ġsamples": 3900,
      "Ġsil": 3901,
      "ĠOther": 3902,
      "vious": 3903,
      "Ġsafety": 3904,
      "ama": 3905,
      "ĠRepublic": 3906,
      "Ġreached": 3907,
      "ario": 3908,
      "Ġentreprene": 3909,
      "Ġcorpor": 3910,
      "Ġtitle": 3911,
      "ĠSocial": 3912,
      "Ġsecurity": 3913,
      "Ġ1999": 3914,
      "Ġconver": 3915,
      "Ġresulting": 3916,
      "Ġplant": 3917,
      "Ġfunctional": 3918,
      "Ġfeedback": 3919,
      "Ġexcept": 3920,
      "Ġsaw": 3921,
      "ĠAssoci": 3922,
      "Ġsecondary": 3923,
      "Ġsoort": 3924,
      "Ġimproved": 3925,
      "Ġhours": 3926,
      "Ġearlier": 3927,
      "Ġprobability": 3928,
      "Ġsometimes": 3929,
      "Ġproduce": 3930,
      "Ġexpressed": 3931,
      "lus": 3932,
      "Ġactual": 3933,
      "DP": 3934,
      "Ġarchitect": 3935,
      "Ġimprovement": 3936,
      "Ġqui": 3937,
      "ON": 3938,
      "Ġ60": 3939,
      "Ġexperimental": 3940,
      "Ġyouth": 3941,
      "Ġ2023": 3942,
      "ico": 3943,
      "ĠMr": 3944,
      "Ġbrand": 3945,
      "Ġleadership": 3946,
      "unction": 3947,
      "ĠEr": 3948,
      "Ġelection": 3949,
      "Ġnetworks": 3950,
      "ya": 3951,
      "Ġwoman": 3952,
      "Ġproperty": 3953,
      "Ġequal": 3954,
      "osen": 3955,
      "Ġdistinct": 3956,
      "ĠIndones": 3957,
      "Ġweak": 3958,
      "Ġtheoretical": 3959,
      "Ġattitudes": 3960,
      "Ġfell": 3961,
      "These": 3962,
      "ulate": 3963,
      "EM": 3964,
      "thing": 3965,
      "Ġmut": 3966,
      "resents": 3967,
      "48": 3968,
      "Ġinstruct": 3969,
      "Ġforest": 3970,
      "eling": 3971,
      "Ġont": 3972,
      "Ġselect": 3973,
      "cious": 3974,
      "Ġepis": 3975,
      "Ġmo": 3976,
      "opp": 3977,
      "Ġsimple": 3978,
      "Ġtemper": 3979,
      "ita": 3980,
      "PA": 3981,
      "Ġexplain": 3982,
      "Ġbehavioral": 3983,
      "road": 3984,
      "cript": 3985,
      "Ġalt": 3986,
      "ush": 3987,
      "Ġalternative": 3988,
      "Ġoffer": 3989,
      "Ġstri": 3990,
      "PS": 3991,
      "iate": 3992,
      "Ġdimensions": 3993,
      "Ġoffice": 3994,
      "Ġtransl": 3995,
      "Ġwife": 3996,
      "ĠZe": 3997,
      "Ġideas": 3998,
      "Ġerror": 3999,
      "Ġvoc": 4000,
      "Ġnor": 4001,
      "Ġproportion": 4002,
      "Ġextra": 4003,
      "empor": 4004,
      "sch": 4005,
      "wise": 4006,
      "Ġsubstant": 4007,
      "ump": 4008,
      "rick": 4009,
      "Ġexplore": 4010,
      "Ġgro": 4011,
      "Ġrules": 4012,
      "ui": 4013,
      "economic": 4014,
      "clusion": 4015,
      "ids": 4016,
      "ini": 4017,
      "Ġsufficient": 4018,
      "Ġbrother": 4019,
      "ubl": 4020,
      "Ġrepresents": 4021,
      "Ġallows": 4022,
      "Ġannounced": 4023,
      "ica": 4024,
      "44": 4025,
      "Ġpros": 4026,
      "Ġcourt": 4027,
      "Ġsetting": 4028,
      "enge": 4029,
      "ala": 4030,
      "ĠLord": 4031,
      "itt": 4032,
      "Ġreports": 4033,
      "Ġinteractions": 4034,
      "orge": 4035,
      "Ġcontribute": 4036,
      "Ġchann": 4037,
      "Ġrequires": 4038,
      "Ġrecru": 4039,
      "Ġdetect": 4040,
      "Ġsevere": 4041,
      "ĠBased": 4042,
      "ette": 4043,
      "Ġrace": 4044,
      "Ġpossess": 4045,
      "Ġcommerc": 4046,
      "aign": 4047,
      "ulture": 4048,
      "ĠNot": 4049,
      "Ġbed": 4050,
      "Ġobjective": 4051,
      "co": 4052,
      "ĠDistrict": 4053,
      "Ġvariety": 4054,
      "Ġempirical": 4055,
      "Ġoptim": 4056,
      "Ġmathemat": 4057,
      "Ġspeed": 4058,
      "umn": 4059,
      "Ġbelieve": 4060,
      "overy": 4061,
      "Ġindustrial": 4062,
      "Ġshared": 4063,
      "ditionally": 4064,
      "Ġunits": 4065,
      "Ġhistorical": 4066,
      "uck": 4067,
      "Ġbias": 4068,
      "Ġtrack": 4069,
      "ĠâĢĺ": 4070,
      "vis": 4071,
      "Ġpan": 4072,
      "Ġdemonstrated": 4073,
      "ĠDem": 4074,
      "no": 4075,
      "Fig": 4076,
      "Ġbaseline": 4077,
      "raft": 4078,
      "Ġalgorith": 4079,
      "Ġbenefit": 4080,
      "47": 4081,
      "Ġcris": 4082,
      "Ġda": 4083,
      "Ġawareness": 4084,
      "key": 4085,
      "Ġappears": 4086,
      "Ġprep": 4087,
      "ructure": 4088,
      "ĠSan": 4089,
      ".âĢĿ": 4090,
      "Ġmechanisms": 4091,
      "Ġmag": 4092,
      "49": 4093,
      "ĠSD": 4094,
      "ĠParticipants": 4095,
      "Ġ/": 4096,
      "Ġtechnologies": 4097,
      "Ġflu": 4098,
      "Ġboard": 4099,
      "enschapp": 4100,
      "Ġorganizational": 4101,
      "Ġmount": 4102,
      "ocks": 4103,
      "Ġarticles": 4104,
      "Ġmunicip": 4105,
      "Ġstake": 4106,
      "Ġrapid": 4107,
      "Ġharm": 4108,
      "era": 4109,
      "itz": 4110,
      "ĠResults": 4111,
      "ella": 4112,
      "CS": 4113,
      "Ġuncertain": 4114,
      "asion": 4115,
      "46": 4116,
      "Ġmess": 4117,
      "Ġcast": 4118,
      "Ġopportunity": 4119,
      "ĠPal": 4120,
      "Ġlargest": 4121,
      "Ġ31": 4122,
      "Ġoutput": 4123,
      "Ġ1998": 4124,
      "Ġeffort": 4125,
      "pling": 4126,
      "iding": 4127,
      "Ġgoing": 4128,
      "Ġdisorder": 4129,
      "Ġang": 4130,
      "uman": 4131,
      "making": 4132,
      "Ġblood": 4133,
      "Ġvalidity": 4134,
      "Ġorient": 4135,
      "Ġexposure": 4136,
      "Ġconstant": 4137,
      "Ġitem": 4138,
      "ĠAustralia": 4139,
      "rig": 4140,
      "Ġ188": 4141,
      "Ġï": 4142,
      "Ġmit": 4143,
      "Ġchanged": 4144,
      "inate": 4145,
      "Ġblock": 4146,
      "Ġquite": 4147,
      "icated": 4148,
      "andid": 4149,
      "Ġrail": 4150,
      "ĠNor": 4151,
      "unn": 4152,
      "ĠAmerica": 4153,
      "holders": 4154,
      "rupt": 4155,
      "Ġsoon": 4156,
      "ares": 4157,
      "ilarly": 4158,
      "gy": 4159,
      "Ġexercise": 4160,
      "Ġadopted": 4161,
      "Ġtwe": 4162,
      "gn": 4163,
      "Ġphot": 4164,
      "aats": 4165,
      "Ġsen": 4166,
      "spec": 4167,
      "Ġwide": 4168,
      "vo": 4169,
      "Ġbig": 4170,
      "Ġincorpor": 4171,
      "ĠEducation": 4172,
      "Ġminor": 4173,
      "Ġlove": 4174,
      "Ġmaximum": 4175,
      "Ġdivided": 4176,
      "ãĢ": 4177,
      "hy": 4178,
      "hic": 4179,
      "Figure": 4180,
      "utenberg": 4181,
      "Ġvisit": 4182,
      "Ġfelt": 4183,
      "Ġapproximately": 4184,
      "Ġprotection": 4185,
      "Ġqualitative": 4186,
      "Ġaccuracy": 4187,
      "Ġweeks": 4188,
      "force": 4189,
      "',": 4190,
      "75": 4191,
      "rates": 4192,
      "van": 4193,
      "ĠOf": 4194,
      "ses": 4195,
      "Ġfully": 4196,
      "Ġemployment": 4197,
      "):": 4198,
      "ĠCourt": 4199,
      "ato": 4200,
      "Ġresource": 4201,
      "bre": 4202,
      "oted": 4203,
      "Ġmort": 4204,
      "ĠIslam": 4205,
      "Ġcompetition": 4206,
      "Ġlearners": 4207,
      "Ġdaugh": 4208,
      "ĠLaw": 4209,
      "Ġhouseholds": 4210,
      "elle": 4211,
      "Ġpercentage": 4212,
      "Ġfamilie": 4213,
      "Ġdate": 4214,
      "Ġtechniques": 4215,
      "Ġmoment": 4216,
      "Ġprop": 4217,
      "ersonal": 4218,
      "reme": 4219,
      "Ġcoord": 4220,
      "gment": 4221,
      "Ġpromote": 4222,
      "Ġload": 4223,
      "Ġsoftware": 4224,
      "Ġexpand": 4225,
      "Ġmagn": 4226,
      "Ġbehind": 4227,
      "Ġformal": 4228,
      "ocial": 4229,
      "burg": 4230,
      "Ġones": 4231,
      "OR": 4232,
      "haps": 4233,
      "Ġnamely": 4234,
      "Ġconflict": 4235,
      "ĠHol": 4236,
      "iences": 4237,
      "ĠOver": 4238,
      "ishing": 4239,
      "ĠCS": 4240,
      "Ġstock": 4241,
      "alle": 4242,
      "ĠWhat": 4243,
      "Ġbreak": 4244,
      "AN": 4245,
      "Ġpractical": 4246,
      "Ġobjects": 4247,
      "Ġvs": 4248,
      "Ã©s": 4249,
      "Ġconcepts": 4250,
      "41": 4251,
      "han": 4252,
      "Ġphilos": 4253,
      "Ġtested": 4254,
      "Re": 4255,
      "uge": 4256,
      "ĠGroup": 4257,
      "Ġjoined": 4258,
      "fered": 4259,
      "Ġdependent": 4260,
      "Ġanswer": 4261,
      "Ġinvestigate": 4262,
      "Ġfootball": 4263,
      "Ġspecifically": 4264,
      "velopment": 4265,
      "inter": 4266,
      "'.": 4267,
      "Ġgep": 4268,
      "Ġenhance": 4269,
      "ĠSer": 4270,
      "iatric": 4271,
      "place": 4272,
      "oke": 4273,
      "Ġnumbers": 4274,
      "Ġcomponent": 4275,
      "Ġpresident": 4276,
      "Ġreliability": 4277,
      "42": 4278,
      "rong": 4279,
      "Ġtechnical": 4280,
      "issions": 4281,
      "Ġstimuli": 4282,
      "vol": 4283,
      "Ġconvers": 4284,
      "Ġconstra": 4285,
      "Ġviolence": 4286,
      "Ġtakes": 4287,
      "Ar": 4288,
      "ĠLat": 4289,
      "ĠStat": 4290,
      "Ġconcerns": 4291,
      "Ġintegration": 4292,
      "Ġclasses": 4293,
      "Ġprogress": 4294,
      "Ġreceive": 4295,
      "IC": 4296,
      "ging": 4297,
      "lementary": 4298,
      "Ġbecomes": 4299,
      "ancing": 4300,
      "ĠTrans": 4301,
      "Ġautom": 4302,
      "field": 4303,
      "Ġeffectiveness": 4304,
      "ĠWestern": 4305,
      "Ġadolescents": 4306,
      "Ġalone": 4307,
      "ĠDr": 4308,
      "Ġcombined": 4309,
      "ean": 4310,
      "Ġfrequently": 4311,
      "Ġintention": 4312,
      "Ġuser": 4313,
      "Ġeerst": 4314,
      "Ġintellig": 4315,
      "Ġconcer": 4316,
      "zen": 4317,
      "Ġconsumers": 4318,
      "Ġcancer": 4319,
      "01": 4320,
      "urance": 4321,
      "Ġcenter": 4322,
      "ME": 4323,
      "Ġagricultural": 4324,
      "Ġ35": 4325,
      "Ġsolution": 4326,
      "ĠQue": 4327,
      "Ġmoral": 4328,
      "Ġspeech": 4329,
      "Ġconsent": 4330,
      "rix": 4331,
      "Ġsignal": 4332,
      "ĠUnion": 4333,
      "Ġexistence": 4334,
      "Ġwest": 4335,
      "Ġcommercial": 4336,
      "Ġimages": 4337,
      "Ġcircum": 4338,
      "Ġconfidence": 4339,
      "iament": 4340,
      "Ġrule": 4341,
      "known": 4342,
      "198": 4343,
      "ĠSub": 4344,
      "ĠDisc": 4345,
      "To": 4346,
      "Ġspread": 4347,
      "Ġcurrently": 4348,
      "Ġsurface": 4349,
      "lt": 4350,
      "Ġcounter": 4351,
      "ervation": 4352,
      "ĠCommun": 4353,
      "Ġcollege": 4354,
      "Ġsurround": 4355,
      "Ġtransform": 4356,
      "het": 4357,
      "Ġprinciples": 4358,
      "ijk": 4359,
      "Ġho": 4360,
      "Ġforces": 4361,
      "Ġwor": 4362,
      "Ġlines": 4363,
      "Ġstructures": 4364,
      "Ġsche": 4365,
      "65": 4366,
      "Ġnurs": 4367,
      "ĠAnother": 4368,
      "levision": 4369,
      "ĠAir": 4370,
      "Ġpressure": 4371,
      "History": 4372,
      "alled": 4373,
      "Ġsustainability": 4374,
      "Ġstatistically": 4375,
      "Ġbarri": 4376,
      "Ġimag": 4377,
      "Ġ1997": 4378,
      "ĠMost": 4379,
      "overed": 4380,
      "Ġtourism": 4381,
      "Ġunique": 4382,
      "Äģ": 4383,
      "Ġmeasurement": 4384,
      "ogene": 4385,
      "Ġoffered": 4386,
      "ĠDiv": 4387,
      "Ġinfluenced": 4388,
      "Ġduration": 4389,
      "AP": 4390,
      "Ġresponsible": 4391,
      "Ġplayers": 4392,
      "Ġannual": 4393,
      "Ġsmaller": 4394,
      "Ġcorresponding": 4395,
      "ĠMethod": 4396,
      "Ġlives": 4397,
      "ington": 4398,
      "Ġpen": 4399,
      "Ġpersons": 4400,
      "Ġlimitations": 4401,
      "Ġnom": 4402,
      "Ġdecrease": 4403,
      "with": 4404,
      "Ġterrit": 4405,
      "Ad": 4406,
      "After": 4407,
      "Ġprevalence": 4408,
      "Ġdistingu": 4409,
      "Ġpun": 4410,
      "ĠHen": 4411,
      "Ġcod": 4412,
      "undred": 4413,
      "43": 4414,
      "Ġreach": 4415,
      "Ġaward": 4416,
      "Ġconsists": 4417,
      "elen": 4418,
      "uis": 4419,
      "ĠBlack": 4420,
      "Ġmanner": 4421,
      "onn": 4422,
      "Ġadvantage": 4423,
      "Ġcore": 4424,
      "where": 4425,
      "Ġped": 4426,
      "vest": 4427,
      "omas": 4428,
      "Ġindicating": 4429,
      "Îµ": 4430,
      "Ġmostly": 4431,
      "Ġcoefficient": 4432,
      "Ġdiscrim": 4433,
      "alls": 4434,
      "Ġfight": 4435,
      "ĠGovernment": 4436,
      "ply": 4437,
      "Ġinvestigated": 4438,
      "ĠJew": 4439,
      "aught": 4440,
      "Ġparticipate": 4441,
      "Ġstru": 4442,
      "Ġappointed": 4443,
      "atie": 4444,
      "Ġfixed": 4445,
      "Is": 4446,
      "Ġwetenschapp": 4447,
      "ecause": 4448,
      "bert": 4449,
      "ĠArt": 4450,
      "Ġoperations": 4451,
      "Ġfif": 4452,
      "cks": 4453,
      "ĠServ": 4454,
      "Ġhealthy": 4455,
      "Ġplayer": 4456,
      "Ġroom": 4457,
      "Ġreferred": 4458,
      "Ġfair": 4459,
      "Ġmer": 4460,
      "Ġtim": 4461,
      "Ġprocedure": 4462,
      "Ġcitizens": 4463,
      "ÏĦ": 4464,
      "ĠCanada": 4465,
      "erde": 4466,
      "Ġrecommend": 4467,
      "Ġseparate": 4468,
      "Ġlaws": 4469,
      "Ġdespite": 4470,
      "BC": 4471,
      "Ġcampaign": 4472,
      "Ġriver": 4473,
      "Ġvul": 4474,
      "eft": 4475,
      "ĠParty": 4476,
      "Ġinformed": 4477,
      "vert": 4478,
      "Ġcombination": 4479,
      "Ġevaluate": 4480,
      "Ġmixed": 4481,
      "Ġcritic": 4482,
      "Ġmedium": 4483,
      "ĠThen": 4484,
      "Ġfriend": 4485,
      "Ġopened": 4486,
      "Ġdiss": 4487,
      "Ġrefers": 4488,
      "Ġnote": 4489,
      "Ġ1996": 4490,
      "Ġconceptual": 4491,
      "ura": 4492,
      "ourse": 4493,
      "Ġresidents": 4494,
      "Ġplus": 4495,
      "apers": 4496,
      "ĠRussian": 4497,
      "Ġchain": 4498,
      "book": 4499,
      "Ġcandid": 4500,
      "roy": 4501,
      "Ġdomestic": 4502,
      "ederal": 4503,
      "ĠCom": 4504,
      "55": 4505,
      "Ġorigin": 4506,
      "iÃ«": 4507,
      "coh": 4508,
      "ras": 4509,
      "Ġserious": 4510,
      "Ġdefe": 4511,
      "mat": 4512,
      "Ġcurric": 4513,
      "ria": 4514,
      "Ġrecognition": 4515,
      "ĠAssociation": 4516,
      "Ġvariance": 4517,
      "Ġpositively": 4518,
      "oses": 4519,
      "Ġhealthcare": 4520,
      "pped": 4521,
      "enty": 4522,
      "ĠSam": 4523,
      "bra": 4524,
      "ned": 4525,
      "ĠSen": 4526,
      "Ġsyn": 4527,
      "Ġrequirements": 4528,
      "Ġvolume": 4529,
      "Ġreform": 4530,
      "Ġanimals": 4531,
      "Ġstructural": 4532,
      "Ġexchange": 4533,
      "Ġconsidering": 4534,
      "Ġfacilities": 4535,
      "Ġsea": 4536,
      "Ġwordt": 4537,
      "Ġesc": 4538,
      "ĠGutenberg": 4539,
      "Ġsymb": 4540,
      "olit": 4541,
      "Ġcontinue": 4542,
      "enth": 4543,
      "Ġlinear": 4544,
      "Ġcells": 4545,
      "edd": 4546,
      "head": 4547,
      "Ġprefer": 4548,
      "ĠDu": 4549,
      "group": 4550,
      "Ġ>": 4551,
      "ifying": 4552,
      "ĠPaul": 4553,
      "Ġvehic": 4554,
      "ef": 4555,
      "Ġinfrast": 4556,
      "ST": 4557,
      "Ġaimed": 4558,
      "ĠTwo": 4559,
      "oration": 4560,
      "ĠSpanish": 4561,
      "ston": 4562,
      "ander": 4563,
      "olutions": 4564,
      "ĠProv": 4565,
      "Ġdoub": 4566,
      "ician": 4567,
      "Ġlinked": 4568,
      "ollowing": 4569,
      "Ġscholars": 4570,
      "Ġprison": 4571,
      "Ġplaces": 4572,
      "Ġcoast": 4573,
      "Ġsubs": 4574,
      "ĠSur": 4575,
      "Ġwidely": 4576,
      "Ġconfirmed": 4577,
      "Ġgeneration": 4578,
      "Ġslight": 4579,
      "Ġult": 4580,
      "Ġinterpretation": 4581,
      "very": 4582,
      "oo": 4583,
      "Ġgain": 4584,
      "Ġwalk": 4585,
      "Ġ1980": 4586,
      "zil": 4587,
      "ĠPresident": 4588,
      "Ġdifficulties": 4589,
      "Ġdoing": 4590,
      "âĶ": 4591,
      "ĠHIV": 4592,
      "reshold": 4593,
      "Ġtransition": 4594,
      "rust": 4595,
      "pat": 4596,
      "ĠEth": 4597,
      "Ġgem": 4598,
      "Ġserve": 4599,
      "down": 4600,
      "mes": 4601,
      "Ġresponsibility": 4602,
      "Ġmeeting": 4603,
      "Ġ95": 4604,
      "Ġcard": 4605,
      "Ġimplemented": 4606,
      "alities": 4607,
      "ĠArab": 4608,
      "ĠAN": 4609,
      "Ġachieved": 4610,
      "Ġfemales": 4611,
      "Ġcere": 4612,
      "ĠFin": 4613,
      "Ġsituations": 4614,
      "Ġrequest": 4615,
      "Ġcheck": 4616,
      "Ġiniti": 4617,
      "Ġcomes": 4618,
      "Ġdans": 4619,
      "Ġyield": 4620,
      "Ġpour": 4621,
      "Ġdefinition": 4622,
      "Ġconnected": 4623,
      "ĠMid": 4624,
      "Ġpie": 4625,
      "mar": 4626,
      "Ġhier": 4627,
      "ouw": 4628,
      "Ġ1995": 4629,
      "Ġtold": 4630,
      "Ġinterests": 4631,
      "met": 4632,
      "AD": 4633,
      "Ġprices": 4634,
      "Ġpark": 4635,
      "ĠCentral": 4636,
      "Ġestimates": 4637,
      "Ġmarg": 4638,
      "ĠSpec": 4639,
      "ede": 4640,
      "overty": 4641,
      "ulum": 4642,
      "ĠBay": 4643,
      "Ġworden": 4644,
      "Ġgold": 4645,
      "Ġnothing": 4646,
      "fort": 4647,
      "Ġstrongly": 4648,
      "At": 4649,
      "Ġcomputer": 4650,
      "Ġrelease": 4651,
      "Ġclearly": 4652,
      "ĠDepartment": 4653,
      "ĠChampionship": 4654,
      "Ġdescript": 4655,
      "Ġliber": 4656,
      "Ġinstitutional": 4657,
      "Ġpolice": 4658,
      "Ġgrowing": 4659,
      "gl": 4660,
      "report": 4661,
      "Ġchosen": 4662,
      "Ġeast": 4663,
      "ocol": 4664,
      "Ġassociations": 4665,
      "Ġleads": 4666,
      "Ġgeld": 4667,
      "Ġchief": 4668,
      "Ġdomain": 4669,
      "Ġhundred": 4670,
      "Ġlib": 4671,
      "ĠGo": 4672,
      "Ġdut": 4673,
      "raw": 4674,
      "Ġfig": 4675,
      "ĠSupp": 4676,
      "anger": 4677,
      "Ġspent": 4678,
      "uur": 4679,
      "CD": 4680,
      "iological": 4681,
      "Ġmechanism": 4682,
      "Ġpossibility": 4683,
      "%.": 4684,
      "67": 4685,
      "Ġquick": 4686,
      "Ġhar": 4687,
      "Ġcontains": 4688,
      "iceerd": 4689,
      "Ġmarkets": 4690,
      "orial": 4691,
      "Ġsigned": 4692,
      "Ġcrisis": 4693,
      "Ġlegis": 4694,
      "Ġtalk": 4695,
      "ĠHow": 4696,
      "Ġwetenschappelijke": 4697,
      "ww": 4698,
      "fully": 4699,
      "Ġattitude": 4700,
      "oral": 4701,
      "Ġpurpos": 4702,
      "Ġcreation": 4703,
      "ĠCommit": 4704,
      "Ġgrant": 4705,
      "Ġsites": 4706,
      "Ġfort": 4707,
      "Ġproperties": 4708,
      "Ġvary": 4709,
      "Ġteams": 4710,
      "Ġsuic": 4711,
      "Ġgepubl": 4712,
      "Ġtell": 4713,
      "erse": 4714,
      "otes": 4715,
      "Ġrepeated": 4716,
      "Ġimpacts": 4717,
      "ĠBer": 4718,
      "Ġroles": 4719,
      "uls": 4720,
      "well": 4721,
      "urrent": 4722,
      "Ġdirected": 4723,
      "inks": 4724,
      "Ġstandards": 4725,
      "Ġgepubliceerd": 4726,
      "ror": 4727,
      "ĠMad": 4728,
      "anned": 4729,
      "Ġfounded": 4730,
      "Ġresist": 4731,
      "Ġemotions": 4732,
      "iden": 4733,
      "ĠMark": 4734,
      "Ġune": 4735,
      "95": 4736,
      "Ġprofit": 4737,
      "aker": 4738,
      "Ġmonit": 4739,
      "Ġlic": 4740,
      "Ġethnic": 4741,
      "ĠMy": 4742,
      "ĠLou": 4743,
      "aud": 4744,
      "ĠUs": 4745,
      "Ġdepart": 4746,
      "Ġoccurred": 4747,
      "ĠCI": 4748,
      "Ġhands": 4749,
      "Ġheter": 4750,
      "Ġnumerous": 4751,
      "Ġreject": 4752,
      "Ġremaining": 4753,
      "ugh": 4754,
      "ĠJames": 4755,
      "Ps": 4756,
      "venue": 4757,
      "Ġdescribe": 4758,
      "Ġ:": 4759,
      "ĠEv": 4760,
      "inent": 4761,
      "Ġmaar": 4762,
      "âĢ¦": 4763,
      "ĠStreet": 4764,
      "rating": 4765,
      "Ġforward": 4766,
      "Ġexpert": 4767,
      "ago": 4768,
      "bb": 4769,
      "ĠArch": 4770,
      "ĠJapanese": 4771,
      "90": 4772,
      "Ġcustomer": 4773,
      "Ġwat": 4774,
      "Ġcauses": 4775,
      "Ġdatas": 4776,
      "Ġmaster": 4777,
      "Ġfigure": 4778,
      "ĠSwed": 4779,
      "Ġconsequences": 4780,
      ".]": 4781,
      "ĠStudy": 4782,
      "Ġelected": 4783,
      "ingen": 4784,
      "Ġoil": 4785,
      "rian": 4786,
      "Ġderived": 4787,
      "Ġstay": 4788,
      "Ġded": 4789,
      "ĠST": 4790,
      "Ġintended": 4791,
      "Ġworth": 4792,
      "Ġpil": 4793,
      "Ġhol": 4794,
      "luding": 4795,
      "Ġcredit": 4796,
      "Ġleaders": 4797,
      "Ġdecided": 4798,
      "Ġwood": 4799,
      "otic": 4800,
      "itivity": 4801,
      "Ġprobably": 4802,
      "Ġprimarily": 4803,
      "onder": 4804,
      "Ġflex": 4805,
      "Ġpassed": 4806,
      "Ġaims": 4807,
      "Ġcontribution": 4808,
      "Sh": 4809,
      "ĠMany": 4810,
      "Ġsession": 4811,
      "ĠÎ±": 4812,
      "Ġalloc": 4813,
      "Ġpack": 4814,
      "rich": 4815,
      "akers": 4816,
      "Ġvulner": 4817,
      "Ġtherapy": 4818,
      "Ġsports": 4819,
      "inations": 4820,
      "ĠInstitute": 4821,
      "Ġleave": 4822,
      "ĠArmy": 4823,
      "ĠVan": 4824,
      "66": 4825,
      "Ġbeliefs": 4826,
      "Ġneur": 4827,
      "ias": 4828,
      "lies": 4829,
      "cohol": 4830,
      "leb": 4831,
      "Ġbooks": 4832,
      "fess": 4833,
      "ranch": 4834,
      "Ġpaid": 4835,
      "Ġconnection": 4836,
      "Ġzich": 4837,
      "Ġpossib": 4838,
      "Ġreality": 4839,
      "ints": 4840,
      "Ġinstrument": 4841,
      "illing": 4842,
      "ĠMich": 4843,
      "Ġplaying": 4844,
      "RO": 4845,
      "ĠParis": 4846,
      "Ġbrief": 4847,
      "Ġprepar": 4848,
      "ĠGeorge": 4849,
      "Ġnation": 4850,
      "ĠMat": 4851,
      "Ġunf": 4852,
      "Ġpopulations": 4853,
      "iring": 4854,
      "ĠRober": 4855,
      "Ġsynt": 4856,
      "oking": 4857,
      "Ġrisks": 4858,
      "Ġges": 4859,
      "IN": 4860,
      "ville": 4861,
      "right": 4862,
      "Ġestimate": 4863,
      "icians": 4864,
      "Ġdynamic": 4865,
      "Ġgot": 4866,
      "ĠEach": 4867,
      "Ġcomprehensive": 4868,
      "Ġstatistics": 4869,
      "Ġchronic": 4870,
      "Ġthreshold": 4871,
      "Ġcustomers": 4872,
      "Ġfarmers": 4873,
      "Ġgenerated": 4874,
      "Ġengage": 4875,
      "exts": 4876,
      "Ġdeze": 4877,
      "Ġmulti": 4878,
      "Ġlisted": 4879,
      "othe": 4880,
      "CO": 4881,
      "Ġlived": 4882,
      "Ġcreating": 4883,
      "wide": 4884,
      "Ġimproving": 4885,
      "Ġadult": 4886,
      "aur": 4887,
      "Ġsubsequent": 4888,
      "57": 4889,
      "icial": 4890,
      "ousand": 4891,
      "Ġfourth": 4892,
      "Ġvictim": 4893,
      "aal": 4894,
      "Ġje": 4895,
      "ĠKore": 4896,
      "Ġspect": 4897,
      "ÏĤ": 4898,
      "Ġformation": 4899,
      "je": 4900,
      "68": 4901,
      "heid": 4902,
      "rants": 4903,
      "Ġreact": 4904,
      "Ġlanguages": 4905,
      "Ġoperation": 4906,
      "Ġlaun": 4907,
      "Ġ187": 4908,
      "Ġ1994": 4909,
      "Ġwilling": 4910,
      "ĠDo": 4911,
      "Ġarm": 4912,
      "Ġconcerning": 4913,
      "Ġshowing": 4914,
      "Ġunderst": 4915,
      "ĠBrazil": 4916,
      "bid": 4917,
      "Ġjoint": 4918,
      "ĠSection": 4919,
      "Ġau": 4920,
      "Ġtypically": 4921,
      "ĠCup": 4922,
      "Ġregist": 4923,
      "Ġperceptions": 4924,
      "Ġstages": 4925,
      "wer": 4926,
      "Ġsessions": 4927,
      "Ġexplicit": 4928,
      "ĠDis": 4929,
      "Ġcolon": 4930,
      "Ġdistributed": 4931,
      "Ġabsence": 4932,
      "Ġdiverse": 4933,
      "oma": 4934,
      "zo": 4935,
      "Ġbuildings": 4936,
      "ĠMart": 4937,
      "amil": 4938,
      "elihood": 4939,
      "west": 4940,
      "Ġclassroom": 4941,
      "Ġrepresentation": 4942,
      "Ġcategor": 4943,
      "ĠCong": 4944,
      "Ġanti": 4945,
      "Ġcontexts": 4946,
      "osite": 4947,
      "Ġregulation": 4948,
      "Ġadequ": 4949,
      "ĠRich": 4950,
      "Ġnews": 4951,
      "ĠAcad": 4952,
      "Ġchallenge": 4953,
      "ussion": 4954,
      "Ġpoverty": 4955,
      "Ġ80": 4956,
      "ati": 4957,
      "ĠSl": 4958,
      "Ġbanks": 4959,
      "Ġmales": 4960,
      "Ġjournal": 4961,
      "Ġinteresting": 4962,
      "Ġcommonly": 4963,
      "ĠVol": 4964,
      "Ġattend": 4965,
      "Ãª": 4966,
      "Ġhot": 4967,
      "ĠItalian": 4968,
      "lymp": 4969,
      ")(": 4970,
      "Ġopinion": 4971,
      "Ġsimply": 4972,
      "Ġ45": 4973,
      "Ġreligion": 4974,
      "Ġinterpre": 4975,
      "Ġgoods": 4976,
      "Ġmere": 4977,
      "Ġdaughter": 4978,
      "Ġenj": 4979,
      "Ġexamples": 4980,
      "Ġstarting": 4981,
      "FC": 4982,
      "Ġadministration": 4983,
      "Ġeasily": 4984,
      "ĠFranc": 4985,
      "urt": 4986,
      "Ġpresents": 4987,
      "usband": 4988,
      "ĠSal": 4989,
      "ĠBoth": 4990,
      "Ġaccepted": 4991,
      "Ġauthority": 4992,
      "Ġdiagnosis": 4993,
      "LS": 4994,
      "ĠEU": 4995,
      "64": 4996,
      "Ġintensity": 4997,
      "ĠCath": 4998,
      "Ġprinciple": 4999,
      "âĶĢ": 5000,
      "Ġelectric": 5001,
      "Ġbod": 5002,
      "Ġresulted": 5003,
      "ĠRel": 5004,
      "ider": 5005,
      "Ġfavor": 5006,
      "utch": 5007,
      "Ġpeak": 5008,
      "erior": 5009,
      "Ġpoll": 5010,
      "ban": 5011,
      "Ġsi": 5012,
      "icate": 5013,
      "ĠCommittee": 5014,
      "iforn": 5015,
      "ais": 5016,
      "Ġaged": 5017,
      "Ġassigned": 5018,
      "Ġcrucial": 5019,
      "Ġgives": 5020,
      "CI": 5021,
      "wood": 5022,
      "Ġbecoming": 5023,
      "Ġcarbon": 5024,
      "Ġencourag": 5025,
      "ko": 5026,
      "Ġbelieved": 5027,
      "Ġbalance": 5028,
      "Ġvalu": 5029,
      "ĠHere": 5030,
      "Ġlargely": 5031,
      "ĠExper": 5032,
      "bor": 5033,
      "Ġconsumer": 5034,
      "Ġoptimal": 5035,
      "ĠRoyal": 5036,
      "Ġefficient": 5037,
      "ente": 5038,
      "Ġinvestigation": 5039,
      "Ġinvolvement": 5040,
      "ĠBu": 5041,
      "Ġhousing": 5042,
      "astern": 5043,
      "Ġdebut": 5044,
      "ellect": 5045,
      "Ã©e": 5046,
      "Ġerrors": 5047,
      "Ġmanager": 5048,
      "Ġviews": 5049,
      "des": 5050,
      "Ġinclusion": 5051,
      "Ġintegrated": 5052,
      "Ġstimulus": 5053,
      "According": 5054,
      "Ġparad": 5055,
      "Ġbeaut": 5056,
      "Ġdial": 5057,
      "Ġplays": 5058,
      "Ġactually": 5059,
      "AM": 5060,
      "ĠTechn": 5061,
      "Ġthing": 5062,
      "Ġinhib": 5063,
      "69": 5064,
      "Ġhem": 5065,
      "Ġtelevision": 5066,
      "king": 5067,
      "ĠRed": 5068,
      "Ġvariation": 5069,
      "Ġcircumst": 5070,
      "Ġanimal": 5071,
      "Ġinh": 5072,
      "ĠSuch": 5073,
      "Ġsays": 5074,
      "ker": 5075,
      "==": 5076,
      "Ġeld": 5077,
      "hi": 5078,
      "Ġphilosoph": 5079,
      "Ġinfrastructure": 5080,
      "Ġautonom": 5081,
      "ola": 5082,
      "Ïģ": 5083,
      "iest": 5084,
      "ĠDespite": 5085,
      "Ġpal": 5086,
      "Ġupper": 5087,
      "theless": 5088,
      "ulty": 5089,
      "Ġimplications": 5090,
      "rum": 5091,
      "Ġrein": 5092,
      "Ġwel": 5093,
      "ĠWil": 5094,
      "Ġgiving": 5095,
      "Ġdetails": 5096,
      "Ġextended": 5097,
      "Ġstatement": 5098,
      "Ġjustice": 5099,
      "Ġdecreased": 5100,
      "Pro": 5101,
      "Ġelev": 5102,
      "58": 5103,
      "Ġparties": 5104,
      "ĠAnalysis": 5105,
      "ĠAustralian": 5106,
      "nel": 5107,
      "icine": 5108,
      "Ġdetailed": 5109,
      "Ġindirect": 5110,
      "Ġgeldig": 5111,
      "Ġrestrict": 5112,
      "Ġnearly": 5113,
      "Ġsac": 5114,
      "elled": 5115,
      "Ġcreat": 5116,
      "Ġevolution": 5117,
      "Ġtruth": 5118,
      "%),": 5119,
      "ĠMex": 5120,
      "isch": 5121,
      "Ã¤n": 5122,
      "ĠBro": 5123,
      "Ġkm": 5124,
      "Ġrare": 5125,
      "ĠIsra": 5126,
      "ault": 5127,
      "Ġdatab": 5128,
      "Ġtrain": 5129,
      "Ġthousand": 5130,
      "Ġcontinuous": 5131,
      "Ġaccomp": 5132,
      "ieu": 5133,
      "Ġtopic": 5134,
      "Ġreb": 5135,
      "Ġsystematic": 5136,
      "scale": 5137,
      "Ġentered": 5138,
      "ĠCommission": 5139,
      "ĠWork": 5140,
      "Ãł": 5141,
      ".'": 5142,
      "Ġillness": 5143,
      "ET": 5144,
      "operation": 5145,
      "ocal": 5146,
      "Ġvon": 5147,
      "pping": 5148,
      "MI": 5149,
      "Ġevaluated": 5150,
      "ĠModel": 5151,
      "Ġlect": 5152,
      "Ġperhaps": 5153,
      "asure": 5154,
      "Ġ1970": 5155,
      "going": 5156,
      "Ġcoh": 5157,
      "Ġenterprises": 5158,
      "Ġhusband": 5159,
      "Ġtemporal": 5160,
      "zy": 5161,
      "Ġquar": 5162,
      "Ġemotion": 5163,
      "Ġ1992": 5164,
      "ĠSing": 5165,
      "iling": 5166,
      "Ġinequ": 5167,
      "ishop": 5168,
      "They": 5169,
      "Ġclassification": 5170,
      "inf": 5171,
      "ĠCompany": 5172,
      "ĠOlymp": 5173,
      "Ġsteps": 5174,
      "ocratic": 5175,
      "--------": 5176,
      "elines": 5177,
      "ĠCaliforn": 5178,
      "ĠSociety": 5179,
      "ĠDevelopment": 5180,
      "Ġdelivery": 5181,
      "Ġalcohol": 5182,
      "Ġperiods": 5183,
      "Ġpersonality": 5184,
      "ael": 5185,
      "ĠLand": 5186,
      "ĠHall": 5187,
      "Ġshape": 5188,
      "Ġassumed": 5189,
      "Ġunderstood": 5190,
      "Ġinstruction": 5191,
      "Ġlot": 5192,
      "59": 5193,
      "Ġagreed": 5194,
      "All": 5195,
      "Ġmoderate": 5196,
      "61": 5197,
      "pha": 5198,
      "Ġapply": 5199,
      "Ġcorrelated": 5200,
      "acht": 5201,
      "Ġprocedures": 5202,
      "Ġextract": 5203,
      "FA": 5204,
      "Ġfast": 5205,
      "Ġfat": 5206,
      "Ġconsult": 5207,
      "ĠCenter": 5208,
      "Ġbad": 5209,
      "Ġarmy": 5210,
      "Ġleader": 5211,
      "Ġisol": 5212,
      "Ġprofessionals": 5213,
      "ĠTest": 5214,
      "Ġoverl": 5215,
      "62": 5216,
      "specific": 5217,
      "63": 5218,
      "Ġproceed": 5219,
      "Ġpregn": 5220,
      "Ġ2024": 5221,
      "Ġplans": 5222,
      "Ġchem": 5223,
      "ĠUnder": 5224,
      "Ġobservation": 5225,
      "adian": 5226,
      "Ġdifficulty": 5227,
      "aph": 5228,
      "Ġelectronic": 5229,
      "Ġmarketing": 5230,
      "Ġdescription": 5231,
      "Ġunderlying": 5232,
      "Ġsettings": 5233,
      "ĠMary": 5234,
      "ĠAdditionally": 5235,
      "ĠTr": 5236,
      "Ġappearance": 5237,
      "Ġfaith": 5238,
      "Ġrich": 5239,
      "Ġraised": 5240,
      "Ġuniversities": 5241,
      "Ġregul": 5242,
      "Ġfreed": 5243,
      "CE": 5244,
      "Ġequip": 5245,
      "Ġearth": 5246,
      "Ġtechnique": 5247,
      "raction": 5248,
      "sembly": 5249,
      "ĠInc": 5250,
      "ĠSystem": 5251,
      "Ġdirector": 5252,
      "Ġreally": 5253,
      "ĠSum": 5254,
      "oul": 5255,
      "Ġobjectives": 5256,
      "Ġexact": 5257,
      "Ġimmediately": 5258,
      "ogical": 5259,
      "Ã§": 5260,
      "Ġzu": 5261,
      "Ġrecently": 5262,
      "Ġrise": 5263,
      "thlet": 5264,
      "Ġnames": 5265,
      "Ġalle": 5266,
      "RE": 5267,
      "ĠItaly": 5268,
      "ĠHij": 5269,
      "amental": 5270,
      "Ġgirls": 5271,
      "Ġcovered": 5272,
      "Ġmission": 5273,
      "Ġsets": 5274,
      "Ġobservations": 5275,
      "Ġreporting": 5276,
      "ĠWhite": 5277,
      "ĠIII": 5278,
      "Ġinsp": 5279,
      "Ġalgorithm": 5280,
      "ĠChild": 5281,
      "Ġdelay": 5282,
      "Ġeffectively": 5283,
      "Ġspl": 5284,
      "Ġplaats": 5285,
      "ferent": 5286,
      "Ġgap": 5287,
      "âĶĢâĶĢ": 5288,
      "Ġelse": 5289,
      "Ġsupporting": 5290,
      "Ġ90": 5291,
      "Ġwa": 5292,
      "Ġ1993": 5293,
      "51": 5294,
      "ĠFound": 5295,
      "Ġminimum": 5296,
      "ida": 5297,
      "Ġrecords": 5298,
      "US": 5299,
      "Con": 5300,
      "_.": 5301,
      "nes": 5302,
      "ĠIntroduction": 5303,
      "ĠNav": 5304,
      "Ġsolutions": 5305,
      "Ġconcluded": 5306,
      "ivation": 5307,
      "Ġattended": 5308,
      "Ġhabit": 5309,
      "Ġfailure": 5310,
      "Ġreducing": 5311,
      "fact": 5312,
      "Ġrock": 5313,
      "Ġtal": 5314,
      "Ġmobile": 5315,
      "istan": 5316,
      "Ġstakeholders": 5317,
      "Ġenjoy": 5318,
      "Ġ1991": 5319,
      "Ġcourses": 5320,
      "ĠIr": 5321,
      "Ġcorporate": 5322,
      "ĠCharles": 5323,
      "ĠIts": 5324,
      "Ġnine": 5325,
      "ĠTheir": 5326,
      "Ġdimension": 5327,
      "emporary": 5328,
      "Ġfields": 5329,
      "Ġaccord": 5330,
      "Ġpurposes": 5331,
      "ione": 5332,
      "Ġaudit": 5333,
      "RS": 5334,
      "Ġacknow": 5335,
      "Ġslow": 5336,
      "fl": 5337,
      "Ġtoday": 5338,
      "ĠCalifornia": 5339,
      "lude": 5340,
      "Ġstrategic": 5341,
      "ĠÂ±": 5342,
      "Ġpeace": 5343,
      "ĠBank": 5344,
      "rees": 5345,
      "Ġpartner": 5346,
      "ĠMS": 5347,
      "aria": 5348,
      "Ġmarriage": 5349,
      "52": 5350,
      "Ġactors": 5351,
      "MA": 5352,
      "Ġoblig": 5353,
      "BS": 5354,
      "ĠGreat": 5355,
      "Ġeventually": 5356,
      "Ġnative": 5357,
      "itu": 5358,
      "Ġhun": 5359,
      "Ġidentification": 5360,
      "ĠFil": 5361,
      "Ġcurriculum": 5362,
      "ĠDavid": 5363,
      "Ġdynamics": 5364,
      "Ġgraph": 5365,
      "Ġsharing": 5366,
      "Ġquantitative": 5367,
      "fin": 5368,
      "Ġargued": 5369,
      "Ġexpectations": 5370,
      "Ġmanagers": 5371,
      "Ġdensity": 5372,
      "ĠVir": 5373,
      "comp": 5374,
      "Ġacquired": 5375,
      "Ġvent": 5376,
      "Ġexcluded": 5377,
      "ĠIsland": 5378,
      "ona": 5379,
      "54": 5380,
      "istor": 5381,
      "estival": 5382,
      "isition": 5383,
      "Ġconstructed": 5384,
      "Ġoffers": 5385,
      "ds": 5386,
      "Ġstar": 5387,
      "onic": 5388,
      "Ġ70": 5389,
      "//": 5390,
      "Ġresearcher": 5391,
      "eness": 5392,
      "ĠAlex": 5393,
      "ĠSir": 5394,
      "Ġsuc": 5395,
      "Ġconscious": 5396,
      "Ġoriginally": 5397,
      "Ġminutes": 5398,
      "Ġcrim": 5399,
      "53": 5400,
      "Ġelement": 5401,
      "sk": 5402,
      "ba": 5403,
      "Ġclosed": 5404,
      "ester": 5405,
      "Ġcentre": 5406,
      "Ġâī": 5407,
      "Ġanalyze": 5408,
      "Ġfeeling": 5409,
      "Ġpas": 5410,
      "Ġreward": 5411,
      "Ġwaste": 5412,
      "house": 5413,
      "ansion": 5414,
      "ĠScience": 5415,
      "ti": 5416,
      "Ġindeed": 5417,
      "Ġcong": 5418,
      "Ġwebs": 5419,
      "Ġconclusion": 5420,
      "Ġcontrols": 5421,
      "Ġintellect": 5422,
      "Ġconvent": 5423,
      "Ġdiversity": 5424,
      "gram": 5425,
      "ĠAmong": 5426,
      "Ġmice": 5427,
      "atter": 5428,
      "Ġengaged": 5429,
      "standing": 5430,
      "Ġign": 5431,
      "Ġpotentially": 5432,
      "Ġthemes": 5433,
      "ua": 5434,
      "ĠMo": 5435,
      "Cl": 5436,
      "Ġorganis": 5437,
      "Ġremark": 5438,
      "Ġmal": 5439,
      "Ġfeelings": 5440,
      "Ġsampling": 5441,
      "uries": 5442,
      "Ġpositions": 5443,
      "rain": 5444,
      "Ġabst": 5445,
      "Ġmanifest": 5446,
      "ĠGreen": 5447,
      "Ġcolor": 5448,
      "Ġeye": 5449,
      "Ġeasy": 5450,
      "Ġresil": 5451,
      "Ġsecret": 5452,
      "gt": 5453,
      "Ġundert": 5454,
      "Ġapplications": 5455,
      "Ġ38": 5456,
      "Ġadvance": 5457,
      "Ġcontain": 5458,
      "Ġassets": 5459,
      "Ġtreated": 5460,
      "Ġtechnological": 5461,
      "Ġcharacterized": 5462,
      "rations": 5463,
      "Ġwealth": 5464,
      "Ġconsideration": 5465,
      "Ġneural": 5466,
      "Ġargument": 5467,
      "ĠIndonesia": 5468,
      "Ġcarry": 5469,
      "roke": 5470,
      "Ġadvanced": 5471,
      "iel": 5472,
      ".--": 5473,
      "Ġdivision": 5474,
      "Ġgovernance": 5475,
      "Le": 5476,
      "ĠÏĦ": 5477,
      "Ġwild": 5478,
      "Ġdro": 5479,
      "Ġdemands": 5480,
      "Ġdit": 5481,
      "Ġmethodology": 5482,
      "rat": 5483,
      "olf": 5484,
      "ĠEmp": 5485,
      "%).": 5486,
      "56": 5487,
      "arity": 5488,
      "Ġ()": 5489,
      "Ġimpair": 5490,
      "Ġein": 5491,
      "gypt": 5492,
      "athy": 5493,
      "Ġstream": 5494,
      "iance": 5495,
      "ado": 5496,
      "Ġcollaboration": 5497,
      "Ġchap": 5498,
      "do": 5499,
      "teen": 5500,
      "Ġcontrolled": 5501,
      "Ġwit": 5502,
      "://": 5503,
      "arth": 5504,
      "Ġforced": 5505,
      "Ġyounger": 5506,
      "aper": 5507,
      "78": 5508,
      "Ġstrugg": 5509,
      "Ġreplaced": 5510,
      "Ġmovements": 5511,
      "Ġsubjective": 5512,
      "indu": 5513,
      "ĠMac": 5514,
      "Ġinvolves": 5515,
      "Ġexperiments": 5516,
      "ĠAlso": 5517,
      "olk": 5518,
      "udd": 5519,
      "Ġheeft": 5520,
      "Ġprote": 5521,
      "ĠNig": 5522,
      "Ġphenomenon": 5523,
      "ĠRev": 5524,
      "Ġimmig": 5525,
      "Ġconsisted": 5526,
      "ĠThomas": 5527,
      "uan": 5528,
      "hetic": 5529,
      "aped": 5530,
      "oen": 5531,
      "ĠSte": 5532,
      "ependent": 5533,
      "Ġexplanation": 5534,
      "Ġcycle": 5535,
      "Ġoccurs": 5536,
      "Ġinitially": 5537,
      "Ġod": 5538,
      "urning": 5539,
      "Ġdram": 5540,
      "Ġnav": 5541,
      "Ġlingu": 5542,
      "Ġkilled": 5543,
      "verse": 5544,
      "Ġvoice": 5545,
      "Ġancient": 5546,
      "Ġrunning": 5547,
      "ultane": 5548,
      "Ġap": 5549,
      "erved": 5550,
      "itage": 5551,
      "Ġremoved": 5552,
      "Ġ32": 5553,
      "ota": 5554,
      "Ġcomplet": 5555,
      "Ġuncertainty": 5556,
      "hips": 5557,
      "Ġfundamental": 5558,
      "Ġmode": 5559,
      "Ġsav": 5560,
      "Ġsensitivity": 5561,
      "FL": 5562,
      "position": 5563,
      "ĠSpain": 5564,
      "Ġmatrix": 5565,
      "Ġinfluences": 5566,
      "oster": 5567,
      "otyp": 5568,
      "Ġsales": 5569,
      "ips": 5570,
      "Ġdiffer": 5571,
      "hav": 5572,
      "Ġtrou": 5573,
      "unte": 5574,
      "Ġzo": 5575,
      "Ġdeliv": 5576,
      "Ġachievement": 5577,
      "Ġtraffic": 5578,
      "istent": 5579,
      "ora": 5580,
      "Ġchanging": 5581,
      "aly": 5582,
      "Ġera": 5583,
      "Ġlandsc": 5584,
      "Ġequipment": 5585,
      "Ġcompare": 5586,
      "Ġchoose": 5587,
      "Ġdesire": 5588,
      "ĠDivision": 5589,
      "ĠRussia": 5590,
      "Ġparticipated": 5591,
      "Ġbarriers": 5592,
      "Ġpredicted": 5593,
      "ĠMont": 5594,
      "Ġintelligence": 5595,
      "ĠLeg": 5596,
      "Ġactivation": 5597,
      "iek": 5598,
      "Therefore": 5599,
      "col": 5600,
      "ÃŁ": 5601,
      "Ġmarked": 5602,
      "Ġdead": 5603,
      "Ġheight": 5604,
      "Ġdepict": 5605,
      "tre": 5606,
      "Ġprotocol": 5607,
      "Ġwerden": 5608,
      "Ġabsolut": 5609,
      "âĪ": 5610,
      "ĠDec": 5611,
      "Ġadaptation": 5612,
      "idential": 5613,
      "Res": 5614,
      "Ġhyper": 5615,
      "Ġmonitoring": 5616,
      "Ġethical": 5617,
      "Ġsuggesting": 5618,
      "Ġemissions": 5619,
      "sequently": 5620,
      "Ġisland": 5621,
      "ĠMinister": 5622,
      "Ġrobust": 5623,
      "orter": 5624,
      "Ġdark": 5625,
      "wa": 5626,
      "which": 5627,
      "Ġrecognized": 5628,
      "Ġavailability": 5629,
      "ĠMount": 5630,
      "Ġscored": 5631,
      "Ġinvolving": 5632,
      "Ġapproved": 5633,
      "gin": 5634,
      "____": 5635,
      "VA": 5636,
      "Ġroute": 5637,
      "onal": 5638,
      "Ġsociet": 5639,
      "Ġkept": 5640,
      "aling": 5641,
      "Ġtemperature": 5642,
      "77": 5643,
      "Ġhelped": 5644,
      "ĠSP": 5645,
      "raf": 5646,
      "ĠRoad": 5647,
      "Ġagent": 5648,
      "reland": 5649,
      "what": 5650,
      "olved": 5651,
      "Ġretain": 5652,
      "Ġpicture": 5653,
      "pre": 5654,
      "ja": 5655,
      "Ġgun": 5656,
      "rison": 5657,
      "Ġhope": 5658,
      "ĠOrgan": 5659,
      "arding": 5660,
      "Ġprincipal": 5661,
      "ude": 5662,
      "Ġlabour": 5663,
      "Ġdecline": 5664,
      "Ġvast": 5665,
      "Ġfamiliar": 5666,
      "ĠNeder": 5667,
      "Ġnorthern": 5668,
      "When": 5669,
      "ĠJust": 5670,
      "Ġfailed": 5671,
      "DI": 5672,
      "Ġcircumstances": 5673,
      "oren": 5674,
      "Ġreceiving": 5675,
      "ormal": 5676,
      "Ġcomment": 5677,
      "ĠCE": 5678,
      "elfare": 5679,
      "ĠBecause": 5680,
      "ishes": 5681,
      "isons": 5682,
      "ĠIslamic": 5683,
      "Ġcluster": 5684,
      "Ġrational": 5685,
      "estion": 5686,
      "RT": 5687,
      "bit": 5688,
      "ĠBas": 5689,
      "Ġtranslation": 5690,
      "employ": 5691,
      "uous": 5692,
      "Ġru": 5693,
      "kin": 5694,
      "Ġauthorities": 5695,
      "Ġtheories": 5696,
      "Ġrepresentative": 5697,
      "Ġinstruments": 5698,
      "Ġsort": 5699,
      "anda": 5700,
      "tm": 5701,
      "Ġbox": 5702,
      "Ġcolumn": 5703,
      "Ġapparent": 5704,
      "ĠPT": 5705,
      "ĠMiss": 5706,
      "atically": 5707,
      "Ġstable": 5708,
      "ĠPublic": 5709,
      "Ġfinally": 5710,
      "Ġturned": 5711,
      "Ġversus": 5712,
      "rete": 5713,
      "agen": 5714,
      "urd": 5715,
      "OS": 5716,
      "ogue": 5717,
      "ĠPA": 5718,
      "Ġcorrelations": 5719,
      "Ġconsiderable": 5720,
      "organ": 5721,
      "crib": 5722,
      "acing": 5723,
      "Ġcomposed": 5724,
      "Ġscales": 5725,
      "Ġcomplexity": 5726,
      "Ġdys": 5727,
      "ava": 5728,
      "Ġexperts": 5729,
      "Ġsucceed": 5730,
      "Ġfinished": 5731,
      "Ġceleb": 5732,
      "Ġfunctioning": 5733,
      "ĠDutch": 5734,
      "rics": 5735,
      "Ġchildhood": 5736,
      "Ġcapture": 5737,
      "Ġdiscl": 5738,
      "everal": 5739,
      "ams": 5740,
      "ĠJes": 5741,
      "Ġcontributed": 5742,
      "Ġmap": 5743,
      "rd": 5744,
      "ĠLouis": 5745,
      "imately": 5746,
      "Ġextrem": 5747,
      "agues": 5748,
      "Ġtrib": 5749,
      "Ġgas": 5750,
      "Ġlett": 5751,
      "Ġsequence": 5752,
      "Ġassign": 5753,
      "Ġpra": 5754,
      "Ġcharg": 5755,
      "Ġproductivity": 5756,
      "Ġclaims": 5757,
      "Ġshift": 5758,
      "Ġlif": 5759,
      "Ġbegin": 5760,
      "BA": 5761,
      "ĠHenry": 5762,
      "Ġfunding": 5763,
      "79": 5764,
      "Ġcareg": 5765,
      "Ġsouthern": 5766,
      "ĠEgypt": 5767,
      "Ġdiseases": 5768,
      "hr": 5769,
      "Ġlearned": 5770,
      "Ã©n": 5771,
      "cher": 5772,
      "inet": 5773,
      "Ġeerste": 5774,
      "Ġsummer": 5775,
      "...": 5776,
      "ĠEven": 5777,
      "ournal": 5778,
      "Ġpeer": 5779,
      "ingly": 5780,
      "Ġben": 5781,
      "Ġchart": 5782,
      "effic": 5783,
      "ady": 5784,
      "uma": 5785,
      "Ġemployee": 5786,
      "Ġsummar": 5787,
      "Un": 5788,
      "owers": 5789,
      "HD": 5790,
      "Ġadoption": 5791,
      "Ġperfect": 5792,
      "Ġconcerned": 5793,
      "ĠFoundation": 5794,
      "Ge": 5795,
      "atre": 5796,
      "Ġwestern": 5797,
      "Ġdestroy": 5798,
      "Ġclosely": 5799,
      "iform": 5800,
      "ĠDon": 5801,
      "ĠFore": 5802,
      "Ġ1960": 5803,
      "Ġofficers": 5804,
      "Ġja": 5805,
      "Cs": 5806,
      "ifications": 5807,
      "ĠDirect": 5808,
      "Ġmac": 5809,
      "hand": 5810,
      "Ġcompletely": 5811,
      "Ġaddressed": 5812,
      "Ġsuitable": 5813,
      "lor": 5814,
      "ĠÃĹ": 5815,
      "Ġfreedom": 5816,
      "Ġuns": 5817,
      "while": 5818,
      "Ġincreasingly": 5819,
      "Ġcharge": 5820,
      "Ġcharacters": 5821,
      "Ġslightly": 5822,
      "ĠFrank": 5823,
      "Ġabilities": 5824,
      "Ġmoving": 5825,
      "Ġorganized": 5826,
      "Ġcommitment": 5827,
      "isher": 5828,
      "Ġprint": 5829,
      "encing": 5830,
      "Ġbattle": 5831,
      "Ġcoming": 5832,
      "mod": 5833,
      "anged": 5834,
      "Ġcontributions": 5835,
      "inder": 5836,
      "Ġsurpr": 5837,
      "load": 5838,
      "ashington": 5839,
      "mann": 5840,
      "ä¸": 5841,
      "Ġrecept": 5842,
      "Ġoperating": 5843,
      "Ġpurs": 5844,
      "vention": 5845,
      "Ġmissing": 5846,
      "Ġorientation": 5847,
      "ĠCatholic": 5848,
      "arn": 5849,
      "ution": 5850,
      "ector": 5851,
      "pectives": 5852,
      "amm": 5853,
      "Ġflood": 5854,
      "ĠSmith": 5855,
      "Ġcompetitive": 5856,
      "eds": 5857,
      "ĠDen": 5858,
      "Ġtwenty": 5859,
      "Ġopening": 5860,
      "ĠGreek": 5861,
      "Ġaffects": 5862,
      "ĠCD": 5863,
      "Ġcode": 5864,
      "Ġadministrative": 5865,
      "Ġequival": 5866,
      "Ġreviews": 5867,
      "ĠChe": 5868,
      "ION": 5869,
      "ĠDiscussion": 5870,
      "If": 5871,
      "Ġhumans": 5872,
      "Ġneut": 5873,
      "ĠDel": 5874,
      "Ġdamage": 5875,
      "Ġentrepreneurs": 5876,
      "Ex": 5877,
      "Ġtrained": 5878,
      "ĠOff": 5879,
      "Ġtele": 5880,
      "Ġmachine": 5881,
      "Ġsymbol": 5882,
      "hab": 5883,
      "Ġsubsequently": 5884,
      "inking": 5885,
      "Ġpapers": 5886,
      "ĠOut": 5887,
      "ĠKingdom": 5888,
      "Ġhouses": 5889,
      "ao": 5890,
      "Ġtransformation": 5891,
      "ĠImp": 5892,
      "amily": 5893,
      "Ġax": 5894,
      "ĠFollowing": 5895,
      "Ġchannel": 5896,
      "Ġdepartment": 5897,
      "Ġmorning": 5898,
      "Ġspiritual": 5899,
      "Ġleaving": 5900,
      "ĠHence": 5901,
      "eget": 5902,
      "Ġcompens": 5903,
      "Ġindicator": 5904,
      "Ġenvironments": 5905,
      "Ġenab": 5906,
      "Ġvirtual": 5907,
      "Ġfacilitate": 5908,
      "Ġmanufacturing": 5909,
      "ĠWomen": 5910,
      "Ġcat": 5911,
      "Ġheavy": 5912,
      "Ġepisode": 5913,
      "Ġintroduction": 5914,
      "Ġadvert": 5915,
      "Ġpair": 5916,
      "section": 5917,
      "ĠGrand": 5918,
      "Ġdan": 5919,
      "Ġsentence": 5920,
      "Ġcensus": 5921,
      "ĠLim": 5922,
      "Ġsimultane": 5923,
      "Pl": 5924,
      "struct": 5925,
      "ĠBen": 5926,
      "iology": 5927,
      "Ġacts": 5928,
      "Ġtypical": 5929,
      "?\"": 5930,
      "fficients": 5931,
      "Ġsubstantial": 5932,
      "unk": 5933,
      "Ġverb": 5934,
      "Ġbud": 5935,
      "ĠInternet": 5936,
      "Ġsenior": 5937,
      "Ġball": 5938,
      "Ġsurve": 5939,
      "And": 5940,
      "Ġdistress": 5941,
      "Ġpron": 5942,
      "ogy": 5943,
      "Ġwanted": 5944,
      "99": 5945,
      "Ġfrequent": 5946,
      "Ġ37": 5947,
      "Ġimper": 5948,
      "Ġgenetic": 5949,
      "Ġliteracy": 5950,
      "Ġinstitution": 5951,
      "Ġagents": 5952,
      "Ġvacc": 5953,
      "Ġmortality": 5954,
      "ographical": 5955,
      "Ġradio": 5956,
      "Ġevident": 5957,
      "ĠAward": 5958,
      "Ġencourage": 5959,
      "ĠBelg": 5960,
      "ifies": 5961,
      "arden": 5962,
      "Ġtaught": 5963,
      "useum": 5964,
      "osy": 5965,
      "Ġelim": 5966,
      "Ġsole": 5967,
      "Ġpet": 5968,
      "Ġquestionnaires": 5969,
      "Ġrecommended": 5970,
      "Ġclassified": 5971,
      "Ġ36": 5972,
      "Ġotherwise": 5973,
      "Ġprepared": 5974,
      "Ġexecutive": 5975,
      "Ġcoefficients": 5976,
      "isp": 5977,
      "Ġstories": 5978,
      "oven": 5979,
      "ĠBur": 5980,
      "Ġjaar": 5981,
      "Ġmedi": 5982,
      "ĠOp": 5983,
      "2015": 5984,
      "Ġ1989": 5985,
      "Ġfulf": 5986,
      "ois": 5987,
      "Ġcolle": 5988,
      "Ġquickly": 5989,
      "Ġkn": 5990,
      "Ġlocations": 5991,
      "iced": 5992,
      "illa": 5993,
      "Ġtry": 5994,
      "Ġagency": 5995,
      "Ġcommission": 5996,
      "ih": 5997,
      "ĠKh": 5998,
      "Ġsongs": 5999,
      "ĠCast": 6000,
      "Ġwithd": 6001,
      "PD": 6002,
      "ĠVer": 6003,
      "Ġjudge": 6004,
      "ena": 6005,
      "Sch": 6006,
      "iller": 6007,
      "Ġdiet": 6008,
      "Ġcortex": 6009,
      "Ġsan": 6010,
      "ĠGDP": 6011,
      "Ġhab": 6012,
      "Ġheard": 6013,
      "Ġmedian": 6014,
      "Ġnorms": 6015,
      "Be": 6016,
      "ĠIreland": 6017,
      "Ġlooking": 6018,
      "ĠMag": 6019,
      "ĠRad": 6020,
      "Ġdouble": 6021,
      "bach": 6022,
      "inces": 6023,
      "Ġguidelines": 6024,
      "Ġhaar": 6025,
      "ostic": 6026,
      "Ġconfirm": 6027,
      "Ġextensive": 6028,
      "ateral": 6029,
      "Ġoptions": 6030,
      "Ġcrime": 6031,
      "bur": 6032,
      "ĠVict": 6033,
      "Ġhit": 6034,
      "ĠRome": 6035,
      "Ġdog": 6036,
      "IT": 6037,
      "Ind": 6038,
      "Ġcompl": 6039,
      "ĠRobert": 6040,
      "then": 6041,
      "rog": 6042,
      ",âĢĿ": 6043,
      "Ġapart": 6044,
      "Ġtijd": 6045,
      "ĠSov": 6046,
      "Ġ33": 6047,
      "Ġconclus": 6048,
      "class": 6049,
      "ĠUk": 6050,
      "Ġrout": 6051,
      "Ġsought": 6052,
      "ĠIl": 6053,
      "Ġcooperation": 6054,
      "Ġaccordance": 6055,
      "Ġexplored": 6056,
      "herent": 6057,
      "Ġmothers": 6058,
      "ĠParl": 6059,
      "Ġacquisition": 6060,
      "Ġ65": 6061,
      "Ġprovision": 6062,
      "aland": 6063,
      "ĠTV": 6064,
      "Ġbul": 6065,
      "ules": 6066,
      "urally": 6067,
      "Ġsaying": 6068,
      "EG": 6069,
      "water": 6070,
      "ĠPortug": 6071,
      "Ġnut": 6072,
      "Ġskill": 6073,
      "Ġsectors": 6074,
      "Ġoccasion": 6075,
      "Ġinterval": 6076,
      "Ġscenario": 6077,
      "ãĢĤ": 6078,
      "ĠSant": 6079,
      "Ġdescribes": 6080,
      "Ġcompetence": 6081,
      "Ġaid": 6082,
      "Ġdemographic": 6083,
      "Ġperspectives": 6084,
      "Ġrecovery": 6085,
      "Ġexceed": 6086,
      "Ġfeet": 6087,
      "Ġcontemporary": 6088,
      "Ġdomains": 6089,
      "ĠWashington": 6090,
      "Ġpromotion": 6091,
      "Ġseverity": 6092,
      "ellow": 6093,
      "Ġarrange": 6094,
      "Ġcomposition": 6095,
      "Ġscope": 6096,
      "Ġhyd": 6097,
      "Ġintellectual": 6098,
      "ieving": 6099,
      "Ġeyes": 6100,
      "Ġreturns": 6101,
      "Ġrecip": 6102,
      "Ġneither": 6103,
      "under": 6104,
      "Ġcoach": 6105,
      "ĠTw": 6106,
      "ili": 6107,
      "Ġmix": 6108,
      "Ġms": 6109,
      "Ġbott": 6110,
      "Ġprogramme": 6111,
      "Ġrepresenting": 6112,
      "Ġdemonstrate": 6113,
      "Ġfine": 6114,
      "ĠTer": 6115,
      "2016": 6116,
      "Ġperman": 6117,
      "roph": 6118,
      "board": 6119,
      "ĠPsych": 6120,
      "Ġ39": 6121,
      "Ġenrol": 6122,
      "Ġdepending": 6123,
      "Ġinterested": 6124,
      "rey": 6125,
      "Ġsport": 6126,
      "erly": 6127,
      "Ġabuse": 6128,
      "Ġpublication": 6129,
      "Ġlowest": 6130,
      "ĠTown": 6131,
      "2014": 6132,
      "2020": 6133,
      "Ġ--": 6134,
      "Ġargue": 6135,
      "71": 6136,
      "Ġpurchase": 6137,
      "lie": 6138,
      "resh": 6139,
      "Ġfunds": 6140,
      "sen": 6141,
      "Ġdrawn": 6142,
      "gu": 6143,
      "Ġresilience": 6144,
      "2010": 6145,
      "otor": 6146,
      "Ġvision": 6147,
      "Ġshif": 6148,
      "Ġdepends": 6149,
      "emb": 6150,
      "azine": 6151,
      "Ġcreative": 6152,
      "Ġaccounting": 6153,
      "ĠJose": 6154,
      "tenance": 6155,
      "ĠSaint": 6156,
      "Ġgenerate": 6157,
      "endit": 6158,
      "Ġcollective": 6159,
      "Ġexclus": 6160,
      "Ġtopics": 6161,
      "allel": 6162,
      "Ġadvoc": 6163,
      "Ġoperational": 6164,
      "Ġdiscovered": 6165,
      "Ġprovince": 6166,
      "Ġformat": 6167,
      "More": 6168,
      "Ġallowing": 6169,
      "rition": 6170,
      "pa": 6171,
      "ignific": 6172,
      "One": 6173,
      "Ġmeant": 6174,
      "Ġincent": 6175,
      "2013": 6176,
      "Ġfle": 6177,
      "Ġdebt": 6178,
      "yt": 6179,
      ".[": 6180,
      "2017": 6181,
      "ĠNa": 6182,
      "Ġfigures": 6183,
      "ĠJack": 6184,
      "Ġsquare": 6185,
      "Ġstatements": 6186,
      "Ġbor": 6187,
      "iy": 6188,
      "2018": 6189,
      "Ġstronger": 6190,
      "ĠCanadian": 6191,
      "ĠStudies": 6192,
      "Ġregarded": 6193,
      "aten": 6194,
      "Ġfru": 6195,
      "Ġnegot": 6196,
      "Ġexpansion": 6197,
      "Ġnarrow": 6198,
      "100": 6199,
      "oir": 6200,
      "evertheless": 6201,
      "Ġ48": 6202,
      "Ġsemi": 6203,
      "fit": 6204,
      "Ġparadig": 6205,
      "ante": 6206,
      "Ġmusical": 6207,
      "edy": 6208,
      "RA": 6209,
      "ho": 6210,
      "Ġmil": 6211,
      "Ġguide": 6212,
      "wan": 6213,
      "Ġwelfare": 6214,
      "ĠUSA": 6215,
      "Ġ1988": 6216,
      "Ġstop": 6217,
      "Ġdocuments": 6218,
      "vi": 6219,
      "ĠInf": 6220,
      "Ġsed": 6221,
      "Ġcontained": 6222,
      "Ġmotion": 6223,
      "alse": 6224,
      "ĠAsia": 6225,
      "Ġdeel": 6226,
      "Ġdisapp": 6227,
      "Ġownership": 6228,
      "Ġpanel": 6229,
      "ĠBoard": 6230,
      "Ġattempts": 6231,
      "Ġran": 6232,
      "Ïĥ": 6233,
      "Î»": 6234,
      "Ġmeer": 6235,
      "ĠJe": 6236,
      "ova": 6237,
      "Ġprevention": 6238,
      "Ġdepressive": 6239,
      "ĠRail": 6240,
      "ĠScott": 6241,
      "Further": 6242,
      "Ġdiscourse": 6243,
      "ĠSE": 6244,
      "comm": 6245,
      "Ġgained": 6246,
      "Ġaggreg": 6247,
      "uscript": 6248,
      "\").": 6249,
      "Ġnone": 6250,
      "etry": 6251,
      "Ġzero": 6252,
      "igenous": 6253,
      "ĠFoot": 6254,
      "amer": 6255,
      "Ġvaluable": 6256,
      "that": 6257,
      "ĠCap": 6258,
      "ĠCamp": 6259,
      "arant": 6260,
      "aine": 6261,
      "Ġbodies": 6262,
      "Ġexposed": 6263,
      "iful": 6264,
      "ĠPost": 6265,
      "Ġbuy": 6266,
      "Ġfocuses": 6267,
      "Ġnarrative": 6268,
      "Ġaccounts": 6269,
      "Ġneighbor": 6270,
      "ĠParliament": 6271,
      "ĠAtt": 6272,
      "roc": 6273,
      "Ġhence": 6274,
      "Ġreplace": 6275,
      "Early": 6276,
      "Ġthereby": 6277,
      "ĠGold": 6278,
      "ailed": 6279,
      "ĠFran": 6280,
      "jo": 6281,
      "ĠClass": 6282,
      "72": 6283,
      "Ġpreced": 6284,
      "Ġscreening": 6285,
      "onym": 6286,
      "ĠEqu": 6287,
      "ĠOb": 6288,
      "Ġplanned": 6289,
      "Ġidentifying": 6290,
      "Ġstad": 6291,
      "ruption": 6292,
      "Ġtowns": 6293,
      "weight": 6294,
      "Ġparameter": 6295,
      "Ġpreference": 6296,
      "Ġheterogene": 6297,
      "Ġindustries": 6298,
      "Ġassumption": 6299,
      "Ġmist": 6300,
      "ĠNether": 6301,
      "\"),": 6302,
      "ĠPeter": 6303,
      "ĠLik": 6304,
      "Ġnog": 6305,
      "Ġcounty": 6306,
      "Ġpsychiatric": 6307,
      "Ġinsurance": 6308,
      "ĠPan": 6309,
      "Ġprominent": 6310,
      "lete": 6311,
      "BT": 6312,
      "76": 6313,
      "Ġsimpl": 6314,
      "Ġcomplic": 6315,
      "Ġestimation": 6316,
      "Ġspeaking": 6317,
      "Ġalter": 6318,
      "state": 6319,
      "Ġtransportation": 6320,
      "ĠSimilarly": 6321,
      "Ġclaimed": 6322,
      "Ġveget": 6323,
      "2012": 6324,
      "ĠHR": 6325,
      "ariate": 6326,
      "kt": 6327,
      "ĠPD": 6328,
      "Ġexcess": 6329,
      "ĠClub": 6330,
      "Ġnegatively": 6331,
      "heast": 6332,
      "inity": 6333,
      "Ġmathematics": 6334,
      "xts": 6335,
      "Ġgest": 6336,
      "stein": 6337,
      "Ġretail": 6338,
      "ĠMuslim": 6339,
      "iro": 6340,
      "ussen": 6341,
      "Ġpresentation": 6342,
      "Ġdefic": 6343,
      "OL": 6344,
      "Ġtree": 6345,
      "Ġven": 6346,
      "Ġsoul": 6347,
      "Ġox": 6348,
      "Ġdecades": 6349,
      "Ġoption": 6350,
      "With": 6351,
      "Ġlies": 6352,
      "Ġsuperv": 6353,
      "Ġgene": 6354,
      "inger": 6355,
      "aste": 6356,
      "Ġsmart": 6357,
      "ĠDi": 6358,
      "Ġnewsp": 6359,
      "osc": 6360,
      "Ġment": 6361,
      "88": 6362,
      "ĠPeople": 6363,
      "osa": 6364,
      "ĠAre": 6365,
      "Ġstreet": 6366,
      "stream": 6367,
      "Ġpure": 6368,
      "Ġvolunte": 6369,
      "usal": 6370,
      "Ġboys": 6371,
      "ĠMuseum": 6372,
      "ĠHuman": 6373,
      "orship": 6374,
      "Ġlabel": 6375,
      "Ġspaces": 6376,
      "Ġequation": 6377,
      "Ġprediction": 6378,
      "Ġscene": 6379,
      "ĠPri": 6380,
      "Ġburden": 6381,
      "Ġsuicide": 6382,
      "NT": 6383,
      "arios": 6384,
      "ĠBet": 6385,
      "Ġregulations": 6386,
      "CH": 6387,
      "Ġmm": 6388,
      "Ġenable": 6389,
      "Ġreflected": 6390,
      "Thus": 6391,
      "Ġsections": 6392,
      "pet": 6393,
      "Ġnuc": 6394,
      "CR": 6395,
      "Ġgrade": 6396,
      "eler": 6397,
      "Ġmanip": 6398,
      "ĠRob": 6399,
      "Ġassistance": 6400,
      "effect": 6401,
      "ĠMean": 6402,
      "ĠAcademy": 6403,
      "Ġmanaged": 6404,
      "ĠAI": 6405,
      "Ġunable": 6406,
      "Ġperforming": 6407,
      "ĠBal": 6408,
      "Ġgeme": 6409,
      "Ġmanage": 6410,
      "Ġoutl": 6411,
      "Ġhop": 6412,
      "Ġ34": 6413,
      "ĠLake": 6414,
      "Ġended": 6415,
      "Ġdisag": 6416,
      "ĠGiven": 6417,
      "ĠAsian": 6418,
      "Ġpromoting": 6419,
      "ometric": 6420,
      "ĠService": 6421,
      "Ġtrends": 6422,
      "Ġcrop": 6423,
      "ĠTor": 6424,
      "itter": 6425,
      "She": 6426,
      "Ġnotes": 6427,
      "Ġawarded": 6428,
      "igg": 6429,
      "Ġsusp": 6430,
      "ĠSou": 6431,
      "CL": 6432,
      "oria": 6433,
      "Ïħ": 6434,
      "From": 6435,
      "Ġinjury": 6436,
      "ĠLatin": 6437,
      "Ġdescriptive": 6438,
      "Ġanswers": 6439,
      "herence": 6440,
      "Ġdaar": 6441,
      "Ġopposite": 6442,
      "Ġruns": 6443,
      "Het": 6444,
      "ĠMel": 6445,
      "ĠOld": 6446,
      "ĠKe": 6447,
      "AL": 6448,
      "Ġupd": 6449,
      "ĠdÃ©": 6450,
      "ĠGh": 6451,
      "ĠPak": 6452,
      "gradu": 6453,
      "ager": 6454,
      "Ġpharm": 6455,
      "Ġlie": 6456,
      "vance": 6457,
      "74": 6458,
      "Ġrenew": 6459,
      "inson": 6460,
      "Ġblue": 6461,
      "pected": 6462,
      "Ġpreferences": 6463,
      "ĠAngel": 6464,
      "Ġhierarch": 6465,
      "Ġinnovative": 6466,
      "ĠYear": 6467,
      "inding": 6468,
      "bed": 6469,
      "ĠScot": 6470,
      "ĠStep": 6471,
      "Ġunknown": 6472,
      "ospit": 6473,
      "Ġemerging": 6474,
      "ĠNetherlands": 6475,
      "PP": 6476,
      "Ã¢": 6477,
      "Ġexpendit": 6478,
      "Ġartist": 6479,
      "Ġstability": 6480,
      "Ġideal": 6481,
      "ĠInformation": 6482,
      "Ġexamination": 6483,
      "Ġdoubt": 6484,
      "Ġdominant": 6485,
      "ĠSS": 6486,
      "utation": 6487,
      "ĠIV": 6488,
      "ĠMil": 6489,
      "Ġtroops": 6490,
      "Ġliv": 6491,
      "Ġdiscrimination": 6492,
      "Ġmeta": 6493,
      "Ġfaced": 6494,
      "Â°": 6495,
      "iant": 6496,
      "Ġdataset": 6497,
      "etric": 6498,
      "Ġampl": 6499,
      "ĠIran": 6500,
      "73": 6501,
      "Ġmanuscript": 6502,
      "Ġsuperior": 6503,
      "Ġletters": 6504,
      "Ġkw": 6505,
      "ĠFour": 6506,
      "Ġattributes": 6507,
      "Ġcriminal": 6508,
      "Ġdefine": 6509,
      "eck": 6510,
      "Ġcert": 6511,
      "ĠForm": 6512,
      "Ġfrag": 6513,
      "war": 6514,
      "Ġowned": 6515,
      "Ġbond": 6516,
      "ĠCH": 6517,
      "nings": 6518,
      "ashion": 6519,
      "Î²": 6520,
      "wing": 6521,
      "Ġseemed": 6522,
      "Ġnotion": 6523,
      "ounds": 6524,
      "Ġfilms": 6525,
      "Ġmaintenance": 6526,
      "Ġinsights": 6527,
      "Ġpowerful": 6528,
      "Ġstations": 6529,
      "Ġsurrounding": 6530,
      "Ġtouch": 6531,
      "Ã«": 6532,
      "ackground": 6533,
      "Ġhighlighted": 6534,
      "lers": 6535,
      "itudinal": 6536,
      "Ġjun": 6537,
      "Ġinside": 6538,
      "Ġadm": 6539,
      "arsh": 6540,
      "Ġresistance": 6541,
      "ĠUsing": 6542,
      "NS": 6543,
      "Ġprotest": 6544,
      "2019": 6545,
      "Ġofficer": 6546,
      "Ġusage": 6547,
      "Ġgod": 6548,
      "ĠLi": 6549,
      "ĠIsrael": 6550,
      "Ġtheme": 6551,
      "Ġgreatest": 6552,
      "Ġtried": 6553,
      "ĠZealand": 6554,
      "2011": 6555,
      "Ġconstraints": 6556,
      "ipped": 6557,
      "Ġtexts": 6558,
      "Ġexists": 6559,
      "¿½": 6560,
      "Ġcrow": 6561,
      "Ġarrived": 6562,
      "gments": 6563,
      "Ġinternet": 6564,
      "ounded": 6565,
      "Ġ{": 6566,
      "Ġcouncil": 6567,
      "ĠConst": 6568,
      "Ġsupports": 6569,
      "Ġsimulation": 6570,
      "Ġadequate": 6571,
      "Ġvariability": 6572,
      "Ġtraits": 6573,
      "Ġcouns": 6574,
      "istical": 6575,
      "Ġvess": 6576,
      "Ġ1987": 6577,
      "ĠTour": 6578,
      "Ġdeviation": 6579,
      "oned": 6580,
      "writ": 6581,
      "ĠLear": 6582,
      "Ġbillion": 6583,
      "Ġinvent": 6584,
      "Ġparallel": 6585,
      "enses": 6586,
      "Ġimposs": 6587,
      "otype": 6588,
      "Ġcalc": 6589,
      "Ġdepth": 6590,
      "rus": 6591,
      "Ġ1986": 6592,
      "Ġdeclared": 6593,
      "ircraft": 6594,
      "elde": 6595,
      "ĠJud": 6596,
      "upp": 6597,
      "Ġandere": 6598,
      "erion": 6599,
      "Ġfeatured": 6600,
      "igation": 6601,
      "ĠDay": 6602,
      "inds": 6603,
      "ricts": 6604,
      "Ġeating": 6605,
      "ĠNederland": 6606,
      "rance": 6607,
      "Ġperce": 6608,
      "sem": 6609,
      "Ġimplies": 6610,
      "Ġproviders": 6611,
      "Ġadapted": 6612,
      "ED": 6613,
      "Ġconventional": 6614,
      "iner": 6615,
      "89": 6616,
      "Ġborder": 6617,
      "Ġfaculty": 6618,
      "Ġsuccessfully": 6619,
      "life": 6620,
      "Ġinterpreted": 6621,
      "raine": 6622,
      "ĠSuper": 6623,
      "ishment": 6624,
      "Ġalpha": 6625,
      "Ġwait": 6626,
      "Ġrailway": 6627,
      "Ġnecessarily": 6628,
      "pers": 6629,
      "Ġcooper": 6630,
      "run": 6631,
      "Ġcomparing": 6632,
      "Ġburn": 6633,
      "Ġexport": 6634,
      "ĠCongress": 6635,
      "Ġbusinesses": 6636,
      "Sc": 6637,
      "ĠScale": 6638,
      "Ġcommittee": 6639,
      "Ġgoes": 6640,
      "Ġdatabase": 6641,
      "rical": 6642,
      "ruik": 6643,
      "Ġimmediate": 6644,
      "Ġdriving": 6645,
      "Ġathlet": 6646,
      "Ġemerged": 6647,
      "Ġinqu": 6648,
      "Ġreliable": 6649,
      "ptions": 6650,
      "Ġaccurate": 6651,
      "Ġpup": 6652,
      "Ġdevices": 6653,
      "Ġexcell": 6654,
      "ected": 6655,
      "rection": 6656,
      "Ġscheme": 6657,
      "uff": 6658,
      "umber": 6659,
      "Ġmill": 6660,
      "Ġroy": 6661,
      "Ġech": 6662,
      "Ġchoices": 6663,
      "Ġwriter": 6664,
      "requ": 6665,
      "By": 6666,
      "cean": 6667,
      "Ġlandscape": 6668,
      "otal": 6669,
      "ĠRichard": 6670,
      "Ġcontaining": 6671,
      "Ġcohort": 6672,
      "Ġagriculture": 6673,
      "Ġswe": 6674,
      "SM": 6675,
      "Ġconsistency": 6676,
      "Ġmanufacture": 6677,
      "ns": 6678,
      "Ġonset": 6679,
      "Ġentirely": 6680,
      "yg": 6681,
      "Ġlinks": 6682,
      "ĠLib": 6683,
      "peror": 6684,
      "Ġarrest": 6685,
      "eless": 6686,
      "Ġrecommendations": 6687,
      "ĠSeveral": 6688,
      "Ġaccompan": 6689,
      "ĠOl": 6690,
      "Ġcontro": 6691,
      "gent": 6692,
      "ube": 6693,
      "Ġanything": 6694,
      "anguage": 6695,
      "Ġobvious": 6696,
      "ĠBus": 6697,
      "Ġpolitics": 6698,
      "este": 6699,
      "orient": 6700,
      "Ġtransmission": 6701,
      "Ġforth": 6702,
      "ĠOpen": 6703,
      "ĠPers": 6704,
      "Ġassume": 6705,
      "antly": 6706,
      "Ġreaction": 6707,
      "Ġconclusions": 6708,
      "ĠCarl": 6709,
      "ĠMinistry": 6710,
      "abet": 6711,
      "Ġsure": 6712,
      "Ġbudget": 6713,
      "Ġrecording": 6714,
      "ails": 6715,
      "Ġindependence": 6716,
      "Ġsoil": 6717,
      "Ġfocusing": 6718,
      "Ġmiles": 6719,
      "Ġbroadcast": 6720,
      "Ġconnections": 6721,
      "ĠNow": 6722,
      "Ġarms": 6723,
      "ĠReview": 6724,
      "Ġseeking": 6725,
      "ctu": 6726,
      "Ġranging": 6727,
      "active": 6728,
      "add": 6729,
      "Ġcolleagues": 6730,
      "Ġhelps": 6731,
      "Ġlikelihood": 6732,
      "ĠConf": 6733,
      "Ġcomfort": 6734,
      "Ġweb": 6735,
      "Ġclean": 6736,
      "occ": 6737,
      "Ġdrugs": 6738,
      "Ġdiscussions": 6739,
      "weg": 6740,
      "Ġsafe": 6741,
      "Ġinhabit": 6742,
      "ĠTurk": 6743,
      "fulness": 6744,
      "Î·": 6745,
      "Ġterritory": 6746,
      "Ġfederal": 6747,
      "Ġdriven": 6748,
      "Ġmand": 6749,
      "Ġplatforms": 6750,
      "Ġproved": 6751,
      "idents": 6752,
      "ĠMem": 6753,
      "Ġhour": 6754,
      "Ġhoriz": 6755,
      "ĠGr": 6756,
      "ading": 6757,
      "Ġ%": 6758,
      "Ġtwee": 6759,
      "Ġchair": 6760,
      "Ġextreme": 6761,
      "Ġsn": 6762,
      "Ġchance": 6763,
      "Ġscenarios": 6764,
      "Ġpilot": 6765,
      "omer": 6766,
      "amin": 6767,
      "Ġtegen": 6768,
      "Ġrot": 6769,
      "Ġleague": 6770,
      "Ġplot": 6771,
      "Ġcoal": 6772,
      "ĠSoviet": 6773,
      "ela": 6774,
      "Ġconcentration": 6775,
      "Ġdelivered": 6776,
      "chen": 6777,
      "Ġsmoking": 6778,
      "secut": 6779,
      "oit": 6780,
      "empl": 6781,
      "Ġsomeone": 6782,
      "ompl": 6783,
      "Ġfix": 6784,
      "ĠProfess": 6785,
      "Ġaudience": 6786,
      "Ġsubsid": 6787,
      "Ġpray": 6788,
      "clusions": 6789,
      "Ġecological": 6790,
      "Ġdas": 6791,
      "ĠVirgin": 6792,
      "ĠThird": 6793,
      "Ġeastern": 6794,
      "Ġ1985": 6795,
      "While": 6796,
      "Ġcaptured": 6797,
      "2009": 6798,
      "Ġsolid": 6799,
      "imensional": 6800,
      "Ġresolution": 6801,
      "Ġissued": 6802,
      "During": 6803,
      "irty": 6804,
      "stead": 6805,
      "Ġave": 6806,
      "cons": 6807,
      "Ġmigration": 6808,
      "Ġwitness": 6809,
      "ĠSee": 6810,
      "omatic": 6811,
      "ĠLiter": 6812,
      "icity": 6813,
      "ĠHill": 6814,
      "won": 6815,
      "Ġenterprise": 6816,
      "Ġconven": 6817,
      "ports": 6818,
      "cles": 6819,
      "ket": 6820,
      "ditional": 6821,
      "Ġwrite": 6822,
      "ä¹": 6823,
      "Ġcalls": 6824,
      "ĠMusic": 6825,
      "ilst": 6826,
      "ĠNon": 6827,
      "isted": 6828,
      "ĠMexico": 6829,
      "Ġwave": 6830,
      "Ġsummary": 6831,
      "uses": 6832,
      "Ġconsequence": 6833,
      "ĠMass": 6834,
      "Ġpossibly": 6835,
      "ilding": 6836,
      "Ġsurg": 6837,
      "Ġquarter": 6838,
      "Ġwebsite": 6839,
      "ĠThrough": 6840,
      "arters": 6841,
      "Ġfoundation": 6842,
      "Ġcoping": 6843,
      "ommod": 6844,
      "Ġalleg": 6845,
      "ĠIndeed": 6846,
      "worth": 6847,
      "pan": 6848,
      "Ġordered": 6849,
      "Bl": 6850,
      "Ġdrop": 6851,
      "achment": 6852,
      "ĠStudents": 6853,
      "ĠÎ²": 6854,
      "Ġserving": 6855,
      "ĠLong": 6856,
      "Ġaband": 6857,
      "Ġattributed": 6858,
      "Ġhypotheses": 6859,
      "ĠASD": 6860,
      "Ġparticipating": 6861,
      "Ġwaren": 6862,
      "Ġgetting": 6863,
      "Ġmuse": 6864,
      "Ġfamous": 6865,
      "erman": 6866,
      "osystem": 6867,
      "ĠAtl": 6868,
      "Ġrespective": 6869,
      "Ġfish": 6870,
      "ĠQueen": 6871,
      "Ġcharacteristic": 6872,
      "Ġabsolute": 6873,
      "ĠMalays": 6874,
      "85": 6875,
      "Ġengineering": 6876,
      "sect": 6877,
      "izoph": 6878,
      "Ġsoldiers": 6879,
      "........": 6880,
      "Ġultimately": 6881,
      "Ġportion": 6882,
      "long": 6883,
      "Ġprofile": 6884,
      "2008": 6885,
      "ĠOnly": 6886,
      "ĠThree": 6887,
      "Ġparental": 6888,
      "Ġreflects": 6889,
      "Ġlinguistic": 6890,
      "Ġstrict": 6891,
      "iled": 6892,
      "Ġwrong": 6893,
      "uer": 6894,
      "ĠDom": 6895,
      "Ġdetection": 6896,
      "Ġpractition": 6897,
      "Ġfalse": 6898,
      "oort": 6899,
      "ĠUnivers": 6900,
      "Ġrating": 6901,
      "Ġmaintained": 6902,
      "âĪĴ": 6903,
      "ĠMedical": 6904,
      "izophren": 6905,
      "Ġlaunched": 6906,
      "Ġcontest": 6907,
      "bell": 6908,
      "Ġsun": 6909,
      "onden": 6910,
      "Äĩ": 6911,
      "agon": 6912,
      "Ġpedag": 6913,
      "nde": 6914,
      "Ġsensitive": 6915,
      "iÃ¨": 6916,
      "ĠUp": 6917,
      "efficacy": 6918,
      "Ġcomparisons": 6919,
      "omy": 6920,
      "gar": 6921,
      "Ġassessing": 6922,
      "abul": 6923,
      "Ġstone": 6924,
      "Ġtendency": 6925,
      "auc": 6926,
      "Ġfaces": 6927,
      "bu": 6928,
      "aya": 6929,
      "Ġhospit": 6930,
      "ĠPet": 6931,
      "Ġneighborhood": 6932,
      "ials": 6933,
      "ĠPoland": 6934,
      "Ġadj": 6935,
      "Ġnu": 6936,
      "Ġtargets": 6937,
      "yles": 6938,
      "Ġentrepreneur": 6939,
      "Ġadvantages": 6940,
      "Ġ1984": 6941,
      "ĠGeorg": 6942,
      "Ġcomplement": 6943,
      "Ġarchitecture": 6944,
      "EA": 6945,
      "bour": 6946,
      "Ġstudying": 6947,
      "onel": 6948,
      "Ġlecture": 6949,
      "Ġphr": 6950,
      "ali": 6951,
      "ĠPac": 6952,
      "Ġvaried": 6953,
      "Ġsubstance": 6954,
      "Ġ75": 6955,
      "Ġdisplayed": 6956,
      "ĠMichael": 6957,
      "Ġid": 6958,
      "Ġ1950": 6959,
      "Ġneurons": 6960,
      "PT": 6961,
      "Ġaccum": 6962,
      "Ġsizes": 6963,
      "Ġpromoted": 6964,
      "Ġobserve": 6965,
      "Ġprovinc": 6966,
      "Ġships": 6967,
      "Ġsched": 6968,
      "Ġteach": 6969,
      "ĠIrish": 6970,
      "etary": 6971,
      "stitution": 6972,
      "ĠâĢĶ": 6973,
      "Ġdegrees": 6974,
      "Ġabstract": 6975,
      "Ġ#": 6976,
      "Ġgew": 6977,
      "zer": 6978,
      "¬ģ": 6979,
      "Ġbroader": 6980,
      "Ġdisability": 6981,
      "Ġstroke": 6982,
      "Ph": 6983,
      "Ġchose": 6984,
      "rome": 6985,
      "ognitive": 6986,
      "ĠMethods": 6987,
      "anning": 6988,
      "ĠES": 6989,
      "fol": 6990,
      "endix": 6991,
      "ĠBrown": 6992,
      "Ġaccompl": 6993,
      "idd": 6994,
      "Ġcandidate": 6995,
      "een": 6996,
      "Ġinvestors": 6997,
      "rins": 6998,
      "Ġmeasuring": 6999,
      "Ġpasseng": 7000,
      "Ġestablishment": 7001,
      "Ġplants": 7002,
      "HS": 7003,
      "Ġwall": 7004,
      "fe": 7005,
      "BI": 7006,
      "cell": 7007,
      "ĠJournal": 7008,
      "Ġelectricity": 7009,
      "disc": 7010,
      "Ġast": 7011,
      "Ġminister": 7012,
      "Ã¯": 7013,
      "ĠSol": 7014,
      "Ġratings": 7015,
      "Ġaircraft": 7016,
      "Ã¡n": 7017,
      "Ġalign": 7018,
      "Ġ44": 7019,
      "Ġri": 7020,
      "arr": 7021,
      "Ġequally": 7022,
      "Ġtourn": 7023,
      "ĠDue": 7024,
      "Ġtill": 7025,
      "iations": 7026,
      "ĠEastern": 7027,
      "Ġpreferred": 7028,
      "iplinary": 7029,
      "ĠJewish": 7030,
      "Ġanticip": 7031,
      "Ġpredom": 7032,
      "Ġaro": 7033,
      "Ġtrees": 7034,
      "Ġadopt": 7035,
      "Am": 7036,
      "hou": 7037,
      "ila": 7038,
      "akt": 7039,
      "TS": 7040,
      "Ġgovernments": 7041,
      "Ġphilosophy": 7042,
      "rine": 7043,
      "MD": 7044,
      "Ġongoing": 7045,
      "ĠNorthern": 7046,
      "Ġbridge": 7047,
      "Ġdetermin": 7048,
      "Ġimprovements": 7049,
      "Ġsomewhat": 7050,
      "Ġguarant": 7051,
      "Ġstudio": 7052,
      "phone": 7053,
      "Ġmood": 7054,
      "98": 7055,
      "ĠSat": 7056,
      "ĠAnn": 7057,
      "Ġmuseum": 7058,
      "Ġverbal": 7059,
      "itors": 7060,
      "arp": 7061,
      "Ġimpossible": 7062,
      "Ã©t": 7063,
      "onia": 7064,
      "Ġgranted": 7065,
      "Ġinters": 7066,
      "Ã¼r": 7067,
      "Ġprompt": 7068,
      "LE": 7069,
      "uality": 7070,
      "Ġrelevance": 7071,
      "Ġfra": 7072,
      "Ġequivalent": 7073,
      "Ġjur": 7074,
      "Ġvehicle": 7075,
      "Ġknew": 7076,
      "Ġapprec": 7077,
      "Ġthoughts": 7078,
      "ĠEst": 7079,
      "Ġcoverage": 7080,
      "Ġopposed": 7081,
      "Ġalongside": 7082,
      "Ġmeasurements": 7083,
      "Ġextension": 7084,
      "ĠBes": 7085,
      "imb": 7086,
      "No": 7087,
      "eper": 7088,
      "Ġpp": 7089,
      "uv": 7090,
      "Ġ500": 7091,
      "ether": 7092,
      "Ġhtt": 7093,
      "value": 7094,
      "Ġseiz": 7095,
      "ĠSk": 7096,
      "Care": 7097,
      "ĠTex": 7098,
      "Ġheritage": 7099,
      "ĠMD": 7100,
      "ĠJesus": 7101,
      "Ġrecruit": 7102,
      "Ġwarm": 7103,
      "orph": 7104,
      "control": 7105,
      "aux": 7106,
      "Ġvote": 7107,
      "Ġmountain": 7108,
      "Ġfeas": 7109,
      "Ġafford": 7110,
      "yd": 7111,
      "Ġmarginal": 7112,
      "CM": 7113,
      "ĠLife": 7114,
      "win": 7115,
      "Ġdiscip": 7116,
      "hester": 7117,
      "Co": 7118,
      "Ġinformal": 7119,
      "Ġ42": 7120,
      "Ġacceptance": 7121,
      "Ġbird": 7122,
      "Ġwerk": 7123,
      "oles": 7124,
      "Ġutility": 7125,
      "ĠProvince": 7126,
      "km": 7127,
      "Ġbiological": 7128,
      "ĠBang": 7129,
      "Ġobst": 7130,
      "Ġassessments": 7131,
      "Ġlui": 7132,
      "quare": 7133,
      "Ġaccommod": 7134,
      "ji": 7135,
      "ĠManagement": 7136,
      "ĠHospital": 7137,
      "Ġneutral": 7138,
      "ici": 7139,
      "Ġframe": 7140,
      "Ġsin": 7141,
      "Ġadjusted": 7142,
      "ricted": 7143,
      "HO": 7144,
      "Ġfloor": 7145,
      "Ġcriterion": 7146,
      "Ġsell": 7147,
      "ysical": 7148,
      "PI": 7149,
      "LA": 7150,
      "Ġconnectivity": 7151,
      "Ġbelonging": 7152,
      "Ġduty": 7153,
      "Ġenemy": 7154,
      "iop": 7155,
      "ĠProgram": 7156,
      "Ġnations": 7157,
      "unc": 7158,
      "Ġpick": 7159,
      "ĠJoseph": 7160,
      "yer": 7161,
      "Ġemphasis": 7162,
      "Ġcausal": 7163,
      "Ġstrengthen": 7164,
      "Americ": 7165,
      "ĠResp": 7166,
      "~}": 7167,
      "ĠFe": 7168,
      "idity": 7169,
      "Ġrefuge": 7170,
      "Ġsolve": 7171,
      "inem": 7172,
      "ĠStr": 7173,
      "ĠChic": 7174,
      "Ġfacility": 7175,
      "Ġfr": 7176,
      "igma": 7177,
      "ĠAuth": 7178,
      "Ġstimulation": 7179,
      "Ġorders": 7180,
      "Ġmerely": 7181,
      "Ġpublications": 7182,
      "Ġserves": 7183,
      "2007": 7184,
      "Ġmathematical": 7185,
      "Ġcarri": 7186,
      "Ġseat": 7187,
      "Ġartists": 7188,
      ".(": 7189,
      "ĠBritain": 7190,
      "Ġgebruik": 7191,
      "Ġstore": 7192,
      "Ġwatch": 7193,
      "Ġchallenging": 7194,
      "Ġunemploy": 7195,
      "ĠAv": 7196,
      "eland": 7197,
      "Ġsubsc": 7198,
      "Ġvot": 7199,
      "ignificant": 7200,
      "ĠNevertheless": 7201,
      "ĠUN": 7202,
      "ĠElect": 7203,
      "ĠLee": 7204,
      "Ġmedicine": 7205,
      "Ġli": 7206,
      "ques": 7207,
      "Ġfert": 7208,
      "Ġentry": 7209,
      "Ġsegment": 7210,
      "ĠIT": 7211,
      "ĠAssembly": 7212,
      "verage": 7213,
      "Ġacknowled": 7214,
      "Ġsettlement": 7215,
      "Ġmaternal": 7216,
      "Ġowner": 7217,
      "Ġmerg": 7218,
      "Ġpool": 7219,
      "akte": 7220,
      "Ġbottom": 7221,
      "Ġsocioeconomic": 7222,
      "ĠMah": 7223,
      "Ġwinning": 7224,
      "iny": 7225,
      "bi": 7226,
      "Ġneighbour": 7227,
      "anz": 7228,
      "dep": 7229,
      "apes": 7230,
      "Ġviewed": 7231,
      "ĠMult": 7232,
      "gest": 7233,
      "ĠLu": 7234,
      "izophrenia": 7235,
      "Ġgradually": 7236,
      "96": 7237,
      "Ġdisturb": 7238,
      "New": 7239,
      "rium": 7240,
      "entional": 7241,
      "ader": 7242,
      "Ġreviewed": 7243,
      "Ġforecast": 7244,
      "Ġclusters": 7245,
      "oz": 7246,
      "Ġnoise": 7247,
      "ĠHa": 7248,
      "Ġtransferred": 7249,
      "ye": 7250,
      "Ġsimultaneously": 7251,
      "Ġpointed": 7252,
      "Ġages": 7253,
      "ivariate": 7254,
      "ĠIndust": 7255,
      "Ġgram": 7256,
      "ĠIP": 7257,
      "Ġguidance": 7258,
      "Ġimpairment": 7259,
      "Ġwider": 7260,
      "ĠMen": 7261,
      "Ġrecruited": 7262,
      "Ġii": 7263,
      "Ġvillages": 7264,
      "opping": 7265,
      "Ġdrive": 7266,
      "press": 7267,
      "pled": 7268,
      "Ġmunicipality": 7269,
      "Ġ1983": 7270,
      "orage": 7271,
      "Ġfifth": 7272,
      "Ġcompli": 7273,
      "imm": 7274,
      "Ġlimits": 7275,
      "graduate": 7276,
      "atural": 7277,
      "Ġdetermining": 7278,
      "Ġfashion": 7279,
      "Ġequity": 7280,
      "Ġboy": 7281,
      "ĠAS": 7282,
      "Ġrevenue": 7283,
      "asters": 7284,
      "isters": 7285,
      "Ġdisput": 7286,
      "Ġfresh": 7287,
      "Ġvictory": 7288,
      "aka": 7289,
      "08": 7290,
      "Ġmodeling": 7291,
      "Ġsynd": 7292,
      "Ġconsisting": 7293,
      "Ġsignals": 7294,
      "Ġpreparation": 7295,
      "heim": 7296,
      "Ġheat": 7297,
      "Ġkinds": 7298,
      "Ġassumptions": 7299,
      "aled": 7300,
      "Ġnurses": 7301,
      "Ġmodified": 7302,
      "Ġhall": 7303,
      "ĠConclusions": 7304,
      "such": 7305,
      "Ġapplying": 7306,
      "Ġcapable": 7307,
      "Although": 7308,
      "Ġembedd": 7309,
      "Ġopinions": 7310,
      "Sp": 7311,
      "Ġexamining": 7312,
      "ĠMer": 7313,
      "ĠÎµ": 7314,
      "ĠLiber": 7315,
      "ican": 7316,
      "ador": 7317,
      "ĠEs": 7318,
      "ĠCre": 7319,
      "ande": 7320,
      "RP": 7321,
      "Ġsensory": 7322,
      "Ġaccompanied": 7323,
      "asant": 7324,
      "Ġdim": 7325,
      "amine": 7326,
      "Ġmobility": 7327,
      "including": 7328,
      "Ġtwice": 7329,
      "Ġvolunt": 7330,
      "ĠMu": 7331,
      "Ġholds": 7332,
      "ĠLet": 7333,
      "Ġiron": 7334,
      "Ġcompris": 7335,
      "Ġshot": 7336,
      "ĠOper": 7337,
      "Ġpul": 7338,
      "Ġmel": 7339,
      "Ġimplementing": 7340,
      "ĠPrince": 7341,
      "iov": 7342,
      "umes": 7343,
      "isk": 7344,
      "ĠLater": 7345,
      "ĠMiddle": 7346,
      "Ġpartial": 7347,
      "ĠHistor": 7348,
      "Ġzou": 7349,
      "reported": 7350,
      "ĠCarol": 7351,
      "Ġgather": 7352,
      "Ġdedicated": 7353,
      "Ġacting": 7354,
      "ĠAut": 7355,
      "Ġecosystem": 7356,
      "Ġlegisl": 7357,
      "miss": 7358,
      "ga": 7359,
      "ĠDie": 7360,
      "Ġenhanced": 7361,
      "Ġthr": 7362,
      "Ġstraight": 7363,
      "shire": 7364,
      "Ġparadigm": 7365,
      "cribed": 7366,
      "Ġsister": 7367,
      "ĠâĢ¦": 7368,
      "stra": 7369,
      "Ġjobs": 7370,
      "orough": 7371,
      "Ġtrying": 7372,
      "Ġcontinues": 7373,
      "Ġwindow": 7374,
      "Ġsuffered": 7375,
      "Ġbranch": 7376,
      "Ġdebate": 7377,
      "hered": 7378,
      "Se": 7379,
      "Ġsurveys": 7380,
      "ĠAp": 7381,
      "Ġdistricts": 7382,
      "trans": 7383,
      "ĠÂ£": 7384,
      "Ġeverything": 7385,
      "Ġregistered": 7386,
      "Ġuniversal": 7387,
      "ĠKen": 7388,
      "Ġnursing": 7389,
      "idal": 7390,
      "ulating": 7391,
      "sub": 7392,
      "Ġ49": 7393,
      "othing": 7394,
      "Ġurg": 7395,
      "Ġtut": 7396,
      "CP": 7397,
      "Ġdies": 7398,
      "ĠHung": 7399,
      "rape": 7400,
      "2006": 7401,
      "ĠSpe": 7402,
      "Ġsigns": 7403,
      "ocamp": 7404,
      "Ġprotein": 7405,
      "Ġrid": 7406,
      "note": 7407,
      "ĠBest": 7408,
      "hent": 7409,
      "ĠStand": 7410,
      "ĠSil": 7411,
      "Ġaffective": 7412,
      "onde": 7413,
      "Ġextremely": 7414,
      "dr": 7415,
      "mo": 7416,
      "oken": 7417,
      "Ġedition": 7418,
      "Ġfavour": 7419,
      "Ġsemantic": 7420,
      "Ġmeaningful": 7421,
      "Ġdefeated": 7422,
      "ĠIS": 7423,
      "Ġpregnancy": 7424,
      "Ġautonomy": 7425,
      "Ġsupposed": 7426,
      "Ġcapabilities": 7427,
      "Ġpiece": 7428,
      "Ġlimitation": 7429,
      "ĠLab": 7430,
      "acher": 7431,
      "Ġrom": 7432,
      "Ġsides": 7433,
      "Ġmessage": 7434,
      "irm": 7435,
      "Ġvisible": 7436,
      "Ġtail": 7437,
      "Ġlag": 7438,
      "Ġnotice": 7439,
      "Ġunion": 7440,
      "oured": 7441,
      "Ġ1982": 7442,
      "ilib": 7443,
      "ĠJac": 7444,
      "Ġpermanent": 7445,
      "Ġgar": 7446,
      "ĠViet": 7447,
      "Ġnewly": 7448,
      "MT": 7449,
      "Ġcontrovers": 7450,
      "abil": 7451,
      "ĠDet": 7452,
      "ĠSouthern": 7453,
      "Ġtraject": 7454,
      "Î¯": 7455,
      "ippocamp": 7456,
      "Ġsplit": 7457,
      "ĠBefore": 7458,
      "ĠWales": 7459,
      "Ġpage": 7460,
      "Ġinfant": 7461,
      "Gen": 7462,
      "Ġmatters": 7463,
      "Ġrig": 7464,
      "Ġpersonnel": 7465,
      "stone": 7466,
      "ads": 7467,
      "sten": 7468,
      "Ġcash": 7469,
      "mentia": 7470,
      "Ġrepresentations": 7471,
      "Ġliqu": 7472,
      "ĠPhilipp": 7473,
      "elve": 7474,
      "Ġchapter": 7475,
      "bro": 7476,
      "Ġaffecting": 7477,
      "Ġacute": 7478,
      "Ġbeneficial": 7479,
      "Ġparl": 7480,
      "ĠNigeria": 7481,
      "aire": 7482,
      "ĠWood": 7483,
      "Ġbehaviours": 7484,
      "Ġinitiatives": 7485,
      "ĠAcc": 7486,
      "Ġkan": 7487,
      "iteit": 7488,
      "ĠSea": 7489,
      "ĠLearning": 7490,
      "racy": 7491,
      "ĠOffice": 7492,
      "aired": 7493,
      "Ġlands": 7494,
      "Ġeditor": 7495,
      "Ġseparately": 7496,
      "forcement": 7497,
      "ĠMur": 7498,
      "Ġinhabitants": 7499,
      "Ġcontrary": 7500,
      "Ġgreatly": 7501,
      "Ġworksh": 7502,
      "Ġcommitted": 7503,
      "Ġbek": 7504,
      "Ġthick": 7505,
      "iry": 7506,
      "icy": 7507,
      "innen": 7508,
      "lik": 7509,
      "Ġnotable": 7510,
      "Ġreconst": 7511,
      "OC": 7512,
      "oli": 7513,
      "Os": 7514,
      "ĠConclusion": 7515,
      "Ġzone": 7516,
      "hu": 7517,
      "Ġice": 7518,
      "ĠPS": 7519,
      "Ġtargeted": 7520,
      "Ġrapidly": 7521,
      "Ġhat": 7522,
      "amber": 7523,
      "ĠFort": 7524,
      "Ġ41": 7525,
      "Ġretire": 7526,
      "Ġstre": 7527,
      "Ġfellow": 7528,
      "EP": 7529,
      "Ġelections": 7530,
      "ĠSecret": 7531,
      "bury": 7532,
      "Ġzij": 7533,
      "ori": 7534,
      "Ġuniform": 7535,
      "udden": 7536,
      "iano": 7537,
      "function": 7538,
      "ĠHo": 7539,
      "inen": 7540,
      "Ġanalysed": 7541,
      "Ġhorse": 7542,
      "acter": 7543,
      "Ã´": 7544,
      "Ġemergency": 7545,
      "riend": 7546,
      "Ġexception": 7547,
      "Ġlosses": 7548,
      "ĠVen": 7549,
      "Ġsie": 7550,
      "Ġindependently": 7551,
      "ĠChildren": 7552,
      "ĠFuture": 7553,
      "Ġsecure": 7554,
      "ĠArts": 7555,
      "oriented": 7556,
      "ĠWhere": 7557,
      "Ġtransp": 7558,
      "ĠEmpire": 7559,
      "Ġcontextual": 7560,
      "Ġmagnitude": 7561,
      "Ġasc": 7562,
      "ĠDef": 7563,
      "ĠCA": 7564,
      "llust": 7565,
      "Ġlegit": 7566,
      "olid": 7567,
      "Ġelabor": 7568,
      "from": 7569,
      "greek": 7570,
      "Ġlibrary": 7571,
      ",[": 7572,
      "Ġlooked": 7573,
      "Ġinequality": 7574,
      "Ġchannels": 7575,
      "Ġlock": 7576,
      "ben": 7577,
      "awa": 7578,
      "uing": 7579,
      "92": 7580,
      "Ġjudgment": 7581,
      "ascular": 7582,
      "asp": 7583,
      "Part": 7584,
      "**": 7585,
      "Ġvariations": 7586,
      "Int": 7587,
      "ogether": 7588,
      "log": 7589,
      "Ġrats": 7590,
      "Te": 7591,
      "ĠTexas": 7592,
      "Ġdistinction": 7593,
      "2005": 7594,
      "Ġpowers": 7595,
      "Ġactively": 7596,
      "Ġattempted": 7597,
      "Ġfewer": 7598,
      "TA": 7599,
      "ypothes": 7600,
      "Ġbreast": 7601,
      "Ġsand": 7602,
      "Ġopposition": 7603,
      "Ġ1979": 7604,
      "Sim": 7605,
      "Ġleaves": 7606,
      "chron": 7607,
      "Ġsurvival": 7608,
      "ĠForce": 7609,
      "Ġholding": 7610,
      "habilit": 7611,
      "ĠBook": 7612,
      "86": 7613,
      "Ġreaching": 7614,
      "wij": 7615,
      "oding": 7616,
      "ĠYet": 7617,
      "ĠÅ": 7618,
      "ĠMartin": 7619,
      "Ġpictures": 7620,
      "Ġreasoning": 7621,
      "ĠOverall": 7622,
      "front": 7623,
      "Ġsevent": 7624,
      "Ġready": 7625,
      "ĠSweden": 7626,
      "Ġmorph": 7627,
      "Ġ1981": 7628,
      "Ġexpanded": 7629,
      "ĠKn": 7630,
      "Ġintra": 7631,
      "ĠSar": 7632,
      "Ġclar": 7633,
      "Ġvulnerable": 7634,
      "rapeut": 7635,
      "Ġethics": 7636,
      "rijk": 7637,
      "Ġrandomly": 7638,
      "Ġmacro": 7639,
      "olving": 7640,
      "Ġoperated": 7641,
      "hm": 7642,
      "Ġflows": 7643,
      "yan": 7644,
      "Ġmeetings": 7645,
      "pring": 7646,
      "Ġorganisation": 7647,
      "ĠVari": 7648,
      "ĠId": 7649,
      "Ġsuffering": 7650,
      "ĠYoung": 7651,
      "Ġschizophrenia": 7652,
      "las": 7653,
      "Ã±": 7654,
      "ĠCare": 7655,
      "Ġroyal": 7656,
      "ancial": 7657,
      "Ġelig": 7658,
      "FI": 7659,
      "Ġcry": 7660,
      "Ġcompr": 7661,
      "cor": 7662,
      "Ġ55": 7663,
      "Ġofficials": 7664,
      "Ġoral": 7665,
      "Ġlex": 7666,
      "ĠHong": 7667,
      "02": 7668,
      "Ġrent": 7669,
      "anges": 7670,
      "ĠGal": 7671,
      "Ġspring": 7672,
      "Ġmaintaining": 7673,
      "ĠGree": 7674,
      "84": 7675,
      "iration": 7676,
      "Ġcontrolling": 7677,
      "Ġquantity": 7678,
      "Ġrough": 7679,
      "throp": 7680,
      "Î¼": 7681,
      "Some": 7682,
      "holder": 7683,
      "ĠTechnology": 7684,
      "ptic": 7685,
      "ĠEnviron": 7686,
      "Ġadverse": 7687,
      "Ġ64": 7688,
      "Ġhonor": 7689,
      "Ġdevice": 7690,
      "Ġboundaries": 7691,
      "Ã£": 7692,
      "Ġcarrying": 7693,
      "po": 7694,
      "Ġgrew": 7695,
      "Ġdisagree": 7696,
      "Ġspot": 7697,
      "ĠLuc": 7698,
      "Ġlongitudinal": 7699,
      "Ġconstructs": 7700,
      "Ġwalls": 7701,
      "Ġamongst": 7702,
      "87": 7703,
      "Ġwinter": 7704,
      "abulary": 7705,
      "83": 7706,
      "Ġelderly": 7707,
      "Ġrecall": 7708,
      "ioned": 7709,
      "93": 7710,
      "ĠBre": 7711,
      "Ġprofessor": 7712,
      "ĠKorea": 7713,
      "Ġinsight": 7714,
      "Ġcontrad": 7715,
      "Ġcompliance": 7716,
      "Ġfuel": 7717,
      "low": 7718,
      "Ã¨re": 7719,
      "Ġefficacy": 7720,
      "Ġnumer": 7721,
      "reatment": 7722,
      "Ġoffering": 7723,
      "Ġovercome": 7724,
      "after": 7725,
      "mosp": 7726,
      "rific": 7727,
      "OVA": 7728,
      "Ġdesired": 7729,
      "ifferent": 7730,
      "Ġperformances": 7731,
      "Career": 7732,
      "ĠChicago": 7733,
      "Ġ''": 7734,
      "ĠPacific": 7735,
      "ima": 7736,
      "Ġcontributes": 7737,
      "Ġreflection": 7738,
      "Ġinn": 7739,
      "Ġlayer": 7740,
      "named": 7741,
      "Ġrated": 7742,
      "iments": 7743,
      "ĠLos": 7744,
      "Ġallocation": 7745,
      "Ġapproval": 7746,
      "ito": 7747,
      "but": 7748,
      "ĠTri": 7749,
      "Ġsentences": 7750,
      "inating": 7751,
      "ĠCross": 7752,
      "ĠDesign": 7753,
      "ĠPop": 7754,
      "Ġlegislation": 7755,
      "Ġbanking": 7756,
      "03": 7757,
      "cers": 7758,
      "Ġmur": 7759,
      "Ġarts": 7760,
      "Ġestate": 7761,
      "ĠTime": 7762,
      "Ġconserv": 7763,
      "Ġjoin": 7764,
      "Ġ43": 7765,
      "body": 7766,
      "Ġschem": 7767,
      "ĠPolish": 7768,
      "ribution": 7769,
      "Ġusual": 7770,
      "Ġbeautiful": 7771,
      "81": 7772,
      "ulf": 7773,
      "Ġcertainly": 7774,
      "Ġvice": 7775,
      "una": 7776,
      "Ġadministered": 7777,
      "Ġworldwide": 7778,
      "ĠRT": 7779,
      "Ġcold": 7780,
      "asi": 7781,
      "ĠÃ©t": 7782,
      "Ġdrawing": 7783,
      "ĠFI": 7784,
      "iography": 7785,
      "igue": 7786,
      "Ġsynthes": 7787,
      "osh": 7788,
      "ĠNote": 7789,
      "Ġmetaph": 7790,
      "What": 7791,
      "mond": 7792,
      "Ġcompos": 7793,
      "Ġrestrictions": 7794,
      "Ġlaid": 7795,
      "Ġcognition": 7796,
      "cription": 7797,
      "lights": 7798,
      "ĠScotland": 7799,
      "97": 7800,
      "Ġvehicles": 7801,
      "ĠGood": 7802,
      "Ġcenters": 7803,
      "Ġmaps": 7804,
      "Ġcited": 7805,
      "ittle": 7806,
      "Ġsymptom": 7807,
      "ologist": 7808,
      "Ġdepos": 7809,
      "inical": 7810,
      "Ġintervals": 7811,
      "Ġproducing": 7812,
      "Ġdevelopmental": 7813,
      "Ġpairs": 7814,
      "Ġacceptable": 7815,
      "Ġfinance": 7816,
      "Ġmagazine": 7817,
      "zi": 7818,
      "Ġintermedi": 7819,
      "Ġflexibility": 7820,
      "Ġago": 7821,
      "Ġherself": 7822,
      "cular": 7823,
      "Ġinvited": 7824,
      "Ġcollaborative": 7825,
      "lamm": 7826,
      "Ġpit": 7827,
      "ĠBul": 7828,
      "aints": 7829,
      "82": 7830,
      "ando": 7831,
      "Ġresidential": 7832,
      "advant": 7833,
      "Ġtoler": 7834,
      "Ġmatches": 7835,
      "Ġconservation": 7836,
      "Ġreasonable": 7837,
      "Ġreveals": 7838,
      "ĠStatistical": 7839,
      "ĠÎ´": 7840,
      "ĠUr": 7841,
      "Ġretired": 7842,
      "Ġtherap": 7843,
      "Ġpeers": 7844,
      "Ġretrie": 7845,
      "Ġ1978": 7846,
      "analysis": 7847,
      "Ġcultures": 7848,
      "Ġfilled": 7849,
      "essment": 7850,
      "Ġblocks": 7851,
      "otion": 7852,
      "94": 7853,
      "Ġpropose": 7854,
      "yself": 7855,
      "esch": 7856,
      "oked": 7857,
      "Ġphenomena": 7858,
      "Furthermore": 7859,
      "ĠADHD": 7860,
      "Ġbatt": 7861,
      "Ġcompletion": 7862,
      "Ġdispos": 7863,
      "ÏĢ": 7864,
      "ĠWal": 7865,
      "ĠSelf": 7866,
      "mal": 7867,
      "atus": 7868,
      "Ġaux": 7869,
      "ĠWater": 7870,
      "Ġmedication": 7871,
      "sectional": 7872,
      "Ġguard": 7873,
      "III": 7874,
      "Ġracial": 7875,
      "Ġinwon": 7876,
      "BM": 7877,
      "Ġtussen": 7878,
      "ĠCamb": 7879,
      "Ġremote": 7880,
      "bar": 7881,
      "real": 7882,
      "Ġgent": 7883,
      "91": 7884,
      "Ġeveryday": 7885,
      "Ġconstitu": 7886,
      "iana": 7887,
      "Ġseparated": 7888,
      "Ġincomp": 7889,
      "Ġq": 7890,
      "rinsic": 7891,
      "Ġble": 7892,
      "ĠPakistan": 7893,
      "Ġmas": 7894,
      "Ġweather": 7895,
      "pass": 7896,
      "aks": 7897,
      "Ġdementia": 7898,
      "Ġkon": 7899,
      "Ġcrowd": 7900,
      "ĠCro": 7901,
      "2000": 7902,
      "Ġcm": 7903,
      "Ġstorage": 7904,
      "åħ": 7905,
      "Ġtranslated": 7906,
      "Â»": 7907,
      "ocation": 7908,
      "Ne": 7909,
      "Ġvictims": 7910,
      "Ġregardless": 7911,
      "Ġloyal": 7912,
      "Ġinfection": 7913,
      "ĠFred": 7914,
      "Ġprofession": 7915,
      "Ġphon": 7916,
      "Ġcommunic": 7917,
      "itled": 7918,
      "Ġdesigns": 7919,
      "EC": 7920,
      "ductive": 7921,
      "oi": 7922,
      "Ġintentions": 7923,
      "ĠLes": 7924,
      "Ġpredictive": 7925,
      "ĠJer": 7926,
      "olar": 7927,
      "def": 7928,
      "ologists": 7929,
      "Ġminority": 7930,
      "Ġdeploy": 7931,
      "Åį": 7932,
      "Ġincident": 7933,
      "Ġachieving": 7934,
      "aze": 7935,
      "Ġregulatory": 7936,
      "ĠEffect": 7937,
      "ĠPenn": 7938,
      "Ġworkplace": 7939,
      "uct": 7940,
      "ĠNetwork": 7941,
      "Ġepid": 7942,
      "ĠOx": 7943,
      "Ġ46": 7944,
      "Ġextracted": 7945,
      "ĠAR": 7946,
      "ĠPlay": 7947,
      "ĠSwedish": 7948,
      "formed": 7949,
      "ĠArtic": 7950,
      "Ġutilized": 7951,
      "esh": 7952,
      "ĠJo": 7953,
      "Ġrend": 7954,
      "Ġdiagnostic": 7955,
      "rait": 7956,
      "ĠHistory": 7957,
      "type": 7958,
      "Ġlifest": 7959,
      "Ġhippocamp": 7960,
      "ĠFact": 7961,
      "Ġkwam": 7962,
      "ĠLine": 7963,
      "Ġoccupied": 7964,
      "eur": 7965,
      "Ġexplains": 7966,
      "Ġphases": 7967,
      "ĠCentre": 7968,
      "Ġperpet": 7969,
      "Ġcomments": 7970,
      "ĠEdward": 7971,
      "ĠFestival": 7972,
      "Ġmining": 7973,
      "Ġfacts": 7974,
      "Ġ1975": 7975,
      "aded": 7976,
      "text": 7977,
      "Ġcas": 7978,
      "escent": 7979,
      "iol": 7980,
      "Ġstanding": 7981,
      "Ġencouraged": 7982,
      "emen": 7983,
      "Ã¨s": 7984,
      "Ġpartly": 7985,
      "egen": 7986,
      "Ġlov": 7987,
      "Ġrejected": 7988,
      "Ġstructured": 7989,
      "hus": 7990,
      "04": 7991,
      "Ġversions": 7992,
      "ĠTom": 7993,
      "ĠSun": 7994,
      "ĠFlor": 7995,
      "Ġhaz": 7996,
      "rouw": 7997,
      "Ġvisits": 7998,
      "Ġclassical": 7999,
      "abeth": 8000,
      "Ġearned": 8001,
      "ĠTre": 8002,
      "Ġprecip": 8003,
      "gens": 8004,
      "Ġvector": 8005,
      "Ġspeakers": 8006,
      "ĠCR": 8007,
      "First": 8008,
      "Ġwish": 8009,
      "ĠInterest": 8010,
      "hyth": 8011,
      "2004": 8012,
      "Ġcodes": 8013,
      "rity": 8014,
      "Ġclients": 8015,
      "ĠÂ«": 8016,
      "Ġaddressing": 8017,
      "person": 8018,
      "Ġwalking": 8019,
      "Ġrevolution": 8020,
      "Ġconflicts": 8021,
      "Ġencount": 8022,
      "name": 8023,
      "ĠCorpor": 8024,
      "Ġexplicitly": 8025,
      "Ġpsychology": 8026,
      "Ġinfluencing": 8027,
      "Ġvisited": 8028,
      "uty": 8029,
      "Ġpret": 8030,
      "Ġscript": 8031,
      "Ġrestricted": 8032,
      "Ġpractitioners": 8033,
      "Ġfruit": 8034,
      "rows": 8035,
      "Ġvital": 8036,
      "Ġnous": 8037,
      "obe": 8038,
      "Ġpredictors": 8039,
      "Ġraise": 8040,
      "rapeutic": 8041,
      "Ġpollution": 8042,
      "Ġagencies": 8043,
      "Ġstands": 8044,
      "Ġmutual": 8045,
      "Ã¦": 8046,
      "American": 8047,
      "Ġsituated": 8048,
      "Ġmanaging": 8049,
      "Ġhero": 8050,
      "Ġproc": 8051,
      "Ġconsensus": 8052,
      "brid": 8053,
      "Ġschedul": 8054,
      "Or": 8055,
      "Ġportfol": 8056,
      "ĠDuke": 8057,
      "Ġconclude": 8058,
      "olitan": 8059,
      "Ġexpressions": 8060,
      "ĠNavy": 8061,
      "ilateral": 8062,
      "ache": 8063,
      "akh": 8064,
      "Ġcouple": 8065,
      "oes": 8066,
      "Ġswitch": 8067,
      "cultural": 8068,
      "ĠMater": 8069,
      "ĠMarc": 8070,
      "Ġtournament": 8071,
      "500": 8072,
      "called": 8073,
      "ĠGall": 8074,
      "Ġsudden": 8075,
      "\";": 8076,
      "Ġavec": 8077,
      "Ġhospitals": 8078,
      "Ġ1976": 8079,
      "conn": 8080,
      "Ġcues": 8081,
      "Ġillustrated": 8082,
      "Ġcopy": 8083,
      "Ġwithdraw": 8084,
      "Ġentertain": 8085,
      "abetes": 8086,
      "Ġ1977": 8087,
      "Ġadding": 8088,
      "Ġexclusion": 8089,
      "Ġexcellent": 8090,
      "uli": 8091,
      "ĠEp": 8092,
      "Ġjourney": 8093,
      "ĠBill": 8094,
      "Ġprogrammes": 8095,
      "Ġdestroyed": 8096,
      "ĠKar": 8097,
      "ĠRom": 8098,
      "serv": 8099,
      "Ġatmosp": 8100,
      "Ġcam": 8101,
      "ĠOR": 8102,
      "Ġcomparable": 8103,
      "sex": 8104,
      "Ġdisch": 8105,
      "Ġproducer": 8106,
      "Ġpieces": 8107,
      "Ġneu": 8108,
      "Ġresidence": 8109,
      "ĠChief": 8110,
      "ĠFootball": 8111,
      "ĠBon": 8112,
      "Ġduties": 8113,
      "Ġstandardized": 8114,
      "{~": 8115,
      "Ġloan": 8116,
      "ĠPrevious": 8117,
      "ĠCommunity": 8118,
      "bben": 8119,
      "ewise": 8120,
      "Ġexplo": 8121,
      "ĠHu": 8122,
      "Ġpayment": 8123,
      "da": 8124,
      "spe": 8125,
      "ĠSup": 8126,
      "Ġ1974": 8127,
      "lem": 8128,
      "Ġversch": 8129,
      "Ġ47": 8130,
      "Ġtrading": 8131,
      "Ġgam": 8132,
      "hang": 8133,
      "ĠFC": 8134,
      "ilibrium": 8135,
      "Ġcontributing": 8136,
      "lich": 8137,
      "Ġ1972": 8138,
      "Ġoccurrence": 8139,
      "ĠSpecifically": 8140,
      "Ġincons": 8141,
      "vin": 8142,
      "ificial": 8143,
      "inates": 8144,
      "Ġdance": 8145,
      "Ġ300": 8146,
      "!\"": 8147,
      "Ġrecognize": 8148,
      "Ġowners": 8149,
      "ronbach": 8150,
      "Ġanswered": 8151,
      "Ġ;": 8152,
      "Ġpredominant": 8153,
      "habilitation": 8154,
      "Ġdisadvant": 8155,
      "Ġengaging": 8156,
      "But": 8157,
      "Ġhomes": 8158,
      "ĠRock": 8159,
      "Ġcoordination": 8160,
      "Ġrelating": 8161,
      "Ġdistinguish": 8162,
      "Ġdiscipline": 8163,
      "Ġcaregivers": 8164,
      "hn": 8165,
      "ĠRO": 8166,
      "Ġraw": 8167,
      "ĠFilm": 8168,
      "ĠCard": 8169,
      "Based": 8170,
      "agraph": 8171,
      "Ġapplicable": 8172,
      "Ġpartially": 8173,
      "Ġeigen": 8174,
      "ika": 8175,
      "Ġoperate": 8176,
      "learning": 8177,
      "Ġgenes": 8178,
      "Ġdoctor": 8179,
      "Ġrecon": 8180,
      "Ġbegins": 8181,
      "Ġdang": 8182,
      "ĠRam": 8183,
      "Ġ...": 8184,
      "ĠQuestion": 8185,
      "ĠAngeles": 8186,
      "Ġperceive": 8187,
      "istence": 8188,
      "Ġshoot": 8189,
      "Ġestablishing": 8190,
      "ĠDemocratic": 8191,
      "2021": 8192,
      "ĠNations": 8193,
      "ĠMax": 8194,
      "emed": 8195,
      "MP": 8196,
      "Ġdetected": 8197,
      "äº": 8198,
      "lets": 8199,
      "ogenous": 8200,
      "uals": 8201,
      "Ġconsciousness": 8202,
      "ĠVill": 8203,
      "orp": 8204,
      "Ġabn": 8205,
      "orbid": 8206,
      "Ġdeaths": 8207,
      "Ġstorm": 8208,
      "ymm": 8209,
      "ĠCapt": 8210,
      "ĠChap": 8211,
      "oto": 8212,
      "Ġinsu": 8213,
      "ompass": 8214,
      "enders": 8215,
      "ĠKong": 8216,
      "ĠCivil": 8217,
      "Stud": 8218,
      "ĠMA": 8219,
      "Ġcenturies": 8220,
      "ught": 8221,
      "Ġaccident": 8222,
      "Ġliterary": 8223,
      "Ġsolving": 8224,
      "ĠHam": 8225,
      "izations": 8226,
      "ĠGlobal": 8227,
      "ĠSA": 8228,
      "Ġinvestments": 8229,
      "osocial": 8230,
      "formance": 8231,
      "ĠPen": 8232,
      "Ġunless": 8233,
      "Ġtiss": 8234,
      "Ġadvice": 8235,
      "Moreover": 8236,
      "Ġmultip": 8237,
      "Ġhear": 8238,
      "Ġfinds": 8239,
      "Ġadjustment": 8240,
      "Ġathletes": 8241,
      "Ġboundary": 8242,
      "Ġpor": 8243,
      "Ġdrivers": 8244,
      "Ġscoring": 8245,
      "ĠValley": 8246,
      "Ġcoding": 8247,
      "Ġgeographical": 8248,
      "igan": 8249,
      "Ġhearing": 8250,
      "Ġhebben": 8251,
      "Ġhal": 8252,
      "Ġcovari": 8253,
      "Ġdry": 8254,
      "Ġincorporated": 8255,
      "Ġnarr": 8256,
      "Ġrow": 8257,
      "ederation": 8258,
      "ĠRecords": 8259,
      "Ġroot": 8260,
      "aven": 8261,
      "using": 8262,
      "Ġprove": 8263,
      "ipher": 8264,
      "ĠBudd": 8265,
      "ĠOh": 8266,
      "Ġpredictor": 8267,
      "Ġexploration": 8268,
      "Ġdual": 8269,
      "Ġprovinces": 8270,
      "ista": 8271,
      "ĠColl": 8272,
      "Ã£o": 8273,
      "ĠAuthor": 8274,
      "Ġdoll": 8275,
      "Ġaw": 8276,
      "ĠSR": 8277,
      "Ġinstructions": 8278,
      "Mc": 8279,
      "ĠJan": 8280,
      "erb": 8281,
      "Ġwellbeing": 8282,
      "esty": 8283,
      "06": 8284,
      "ĠTem": 8285,
      "Ġcab": 8286,
      "Ġmyself": 8287,
      "Ġcalculation": 8288,
      "Ġexpertise": 8289,
      "Ġkeeping": 8290,
      "Ġses": 8291,
      "Ġverd": 8292,
      "Ġlos": 8293,
      "pread": 8294,
      "EN": 8295,
      "ĠVirginia": 8296,
      "Ġchampionship": 8297,
      "Since": 8298,
      "Å¡": 8299,
      "Ġentrepreneurial": 8300,
      "eries": 8301,
      "Ġtrauma": 8302,
      "Ġsave": 8303,
      "ĠEarth": 8304,
      "Ġindices": 8305,
      "Ġepisodes": 8306,
      "open": 8307,
      "Ġorganisations": 8308,
      "Ġoccupation": 8309,
      "ĠHot": 8310,
      "Ġvocabulary": 8311,
      "Ġlig": 8312,
      "ounder": 8313,
      "Ġchemical": 8314,
      "Ġadolescent": 8315,
      "John": 8316,
      "Ġsucceeded": 8317,
      "Ġ52": 8318,
      "Ġvideos": 8319,
      "ĠFar": 8320,
      "Ġactor": 8321,
      "Ġstem": 8322,
      "Ġcrew": 8323,
      "achel": 8324,
      "Ġarguments": 8325,
      "Ġargues": 8326,
      "ĠInst": 8327,
      "oni": 8328,
      "IP": 8329,
      "Ġproof": 8330,
      "Ġworse": 8331,
      "Ġdream": 8332,
      "Ġpassage": 8333,
      "Ġcloud": 8334,
      "omt": 8335,
      "ulative": 8336,
      "Ġanalyzing": 8337,
      "Ġsilver": 8338,
      "DA": 8339,
      "yright": 8340,
      "Ġgemeente": 8341,
      "Ġ1973": 8342,
      "Ġban": 8343,
      "Ġmetal": 8344,
      "Ġwaters": 8345,
      "Ïī": 8346,
      "Ġsatisfied": 8347,
      "ĠAge": 8348,
      "ĠBa": 8349,
      "Ġdeliber": 8350,
      "idden": 8351,
      "eting": 8352,
      "ibilities": 8353,
      "har": 8354,
      "Ġstood": 8355,
      "Ġtreatments": 8356,
      "bel": 8357,
      "Ġkle": 8358,
      "Ġconcrete": 8359,
      "Ġ1940": 8360,
      "Ġdiscover": 8361,
      "ĠColumb": 8362,
      "Ġexhibit": 8363,
      "Ġ1930": 8364,
      "Ġcandidates": 8365,
      "Ġrestaur": 8366,
      "liers": 8367,
      "ĠHaw": 8368,
      "ĠSciences": 8369,
      "uid": 8370,
      "Ġspecified": 8371,
      "2003": 8372,
      "idespread": 8373,
      "ĠGames": 8374,
      "ocracy": 8375,
      "ĠIndex": 8376,
      "ofd": 8377,
      "Ġ51": 8378,
      "agg": 8379,
      "Ġhighlights": 8380,
      "Ġhappened": 8381,
      "ethe": 8382,
      "Ġstyles": 8383,
      "Ġexperiencing": 8384,
      "Ġexpenditure": 8385,
      "Ġnodes": 8386,
      "Ġhelping": 8387,
      "terior": 8388,
      "Ġaccessible": 8389,
      "ĠProt": 8390,
      "Ġmole": 8391,
      "ship": 8392,
      "Ġrely": 8393,
      "Ġinclus": 8394,
      "ĠLo": 8395,
      "Ġmouth": 8396,
      "Ġguest": 8397,
      "Ġcomprehension": 8398,
      "erted": 8399,
      "ĠExperiment": 8400,
      "ĠDou": 8401,
      "Ġpriority": 8402,
      "Ġcloser": 8403,
      "Ġol": 8404,
      "You": 8405,
      "Ġtrop": 8406,
      "Ġconqu": 8407,
      "Ġdependence": 8408,
      "====": 8409,
      "Ġpassing": 8410,
      "Ġeducated": 8411,
      "ĠFre": 8412,
      "Ġconducting": 8413,
      "Ġlaboratory": 8414,
      "Ġrefused": 8415,
      "MEs": 8416,
      "Ġcomputed": 8417,
      "Ġinstances": 8418,
      "Ġdisrupt": 8419,
      "ĠSand": 8420,
      "En": 8421,
      "Îº": 8422,
      "ĠPo": 8423,
      "Ġevaluating": 8424,
      "Ġged": 8425,
      "inance": 8426,
      "OT": 8427,
      "Ġcovers": 8428,
      "aret": 8429,
      "irable": 8430,
      "coming": 8431,
      "iti": 8432,
      "Ġmethodological": 8433,
      "ikk": 8434,
      "Ġevening": 8435,
      "item": 8436,
      "Ġprogramming": 8437,
      "ĠFederal": 8438,
      "La": 8439,
      "Ġcomparative": 8440,
      "lijk": 8441,
      "Ġvarying": 8442,
      "Ġstere": 8443,
      "Ġmetab": 8444,
      "lag": 8445,
      "ustain": 8446,
      "''": 8447,
      "Ġ).": 8448,
      "Ġnewspaper": 8449,
      "Ġ1945": 8450,
      "Ġidentical": 8451,
      "actions": 8452,
      "Ġattached": 8453,
      "Ġdipl": 8454,
      "Des": 8455,
      "br": 8456,
      "~}{~": 8457,
      "child": 8458,
      "Ġnearby": 8459,
      "matic": 8460,
      "ersion": 8461,
      "Ġflag": 8462,
      "Ġkil": 8463,
      "azz": 8464,
      "sm": 8465,
      "Ġanten": 8466,
      "ny": 8467,
      "Ġregime": 8468,
      "asticity": 8469,
      "Ġbear": 8470,
      "Ġfile": 8471,
      "Ġparliament": 8472,
      "ĠSa": 8473,
      "ĠTimes": 8474,
      "Ġ1971": 8475,
      "Ġglass": 8476,
      "Ġconvey": 8477,
      "Ġvolat": 8478,
      "isco": 8479,
      "ĠCSR": 8480,
      "Ġpublish": 8481,
      "ĠTai": 8482,
      "iac": 8483,
      "aval": 8484,
      "Sec": 8485,
      "Ġgrad": 8486,
      "Ġphone": 8487,
      "Ġwillingness": 8488,
      "ĠBern": 8489,
      "Ġsocieties": 8490,
      "Ġseasons": 8491,
      "Ġcausing": 8492,
      "iÄĩ": 8493,
      "havior": 8494,
      "ologically": 8495,
      "haust": 8496,
      "Ġunex": 8497,
      "lav": 8498,
      "urches": 8499,
      "Ġsight": 8500,
      "Ġordinary": 8501,
      "otherapy": 8502,
      "Ġ1968": 8503,
      "Ġcolour": 8504,
      "Ġju": 8505,
      "Ġdepr": 8506,
      "Ġeconomies": 8507,
      "rand": 8508,
      "Ġbiom": 8509,
      "Ġdispl": 8510,
      "ĠÏĢ": 8511,
      "ĠNA": 8512,
      "Ġwhilst": 8513,
      "Ġeasier": 8514,
      "Ġfacing": 8515,
      "iral": 8516,
      "nals": 8517,
      "iger": 8518,
      "non": 8519,
      "Ġrepet": 8520,
      "Ġoccas": 8521,
      "Ġwidespread": 8522,
      "month": 8523,
      "Ġauditory": 8524,
      "Ġsick": 8525,
      "ypothesis": 8526,
      "Ġinterpersonal": 8527,
      "irk": 8528,
      "ailing": 8529,
      "Ġconfig": 8530,
      "ÅĤ": 8531,
      "ĠSund": 8532,
      "Ġstruggle": 8533,
      "Es": 8534,
      "burgh": 8535,
      "Ġnull": 8536,
      "law": 8537,
      "olo": 8538,
      "Ġintens": 8539,
      "Ġempower": 8540,
      "Ġafterwards": 8541,
      "Ġincidence": 8542,
      "ĠControl": 8543,
      "Ġextend": 8544,
      "07": 8545,
      "ĠCP": 8546,
      "Ġranked": 8547,
      "anging": 8548,
      "DS": 8549,
      "aneous": 8550,
      "Ġfemin": 8551,
      "Ġdeterminants": 8552,
      "Ġdirections": 8553,
      "Ġencompass": 8554,
      "Ġattain": 8555,
      "she": 8556,
      "ĠBusiness": 8557,
      "ĠKorean": 8558,
      "etal": 8559,
      "isd": 8560,
      "Ġdiam": 8561,
      "ilation": 8562,
      "Ġinspired": 8563,
      "Ġends": 8564,
      "Ġauf": 8565,
      "Ġnutrition": 8566,
      "Ġescape": 8567,
      "ĠEconomic": 8568,
      "ello": 8569,
      "owed": 8570,
      "Other": 8571,
      "Ġinduced": 8572,
      "income": 8573,
      "Ġcreativity": 8574,
      "Ġexecution": 8575,
      "Ġfinancing": 8576,
      "Ġsnow": 8577,
      "Ġhappy": 8578,
      "Ġcart": 8579,
      "ĠHor": 8580,
      "El": 8581,
      "Ġreputation": 8582,
      "Ġexhibited": 8583,
      "Ġparish": 8584,
      "itar": 8585,
      "Ġimplicit": 8586,
      "Ġconversation": 8587,
      "Ġcolonial": 8588,
      "ĠFund": 8589,
      "Ġmerch": 8590,
      "ĠAppendix": 8591,
      "Ġinwoners": 8592,
      "Ġexped": 8593,
      "ĠGovernor": 8594,
      "Ġsquad": 8595,
      "Dem": 8596,
      "ĠJews": 8597,
      "Ġist": 8598,
      "ĠEngine": 8599,
      "Ġ1920": 8600,
      "Ġbroken": 8601,
      "Ġdealing": 8602,
      "ĠBattle": 8603,
      "Ġconsiderations": 8604,
      "Ġpermission": 8605,
      "EL": 8606,
      "Ġattacks": 8607,
      "Ġspending": 8608,
      "cling": 8609,
      "Ġorganic": 8610,
      "Ġdiscipl": 8611,
      "Ġhistoric": 8612,
      "ĠMajor": 8613,
      "orders": 8614,
      "Ġabsor": 8615,
      "Ġtwelve": 8616,
      "ĠJohnson": 8617,
      "Ġsciences": 8618,
      "Ġdistinguished": 8619,
      "09": 8620,
      "Ġnur": 8621,
      "di": 8622,
      "Ġenables": 8623,
      "Ġconce": 8624,
      "Ġasset": 8625,
      "Ġeducators": 8626,
      "otypes": 8627,
      "Ġcapita": 8628,
      "euw": 8629,
      "opt": 8630,
      "];": 8631,
      "Ġparagraph": 8632,
      "ĠGar": 8633,
      "ĠJoh": 8634,
      "Ġconsistently": 8635,
      "atever": 8636,
      "ĠTim": 8637,
      "Ġinteractive": 8638,
      "Ġsubt": 8639,
      "mas": 8640,
      "VI": 8641,
      "orous": 8642,
      "ulpt": 8643,
      "Ġvulnerability": 8644,
      "iable": 8645,
      "Ġheterogeneity": 8646,
      "esity": 8647,
      "ĠRegarding": 8648,
      "Ġreserv": 8649,
      "Ġcampus": 8650,
      "Ġauthent": 8651,
      "overe": 8652,
      "Ġcalculate": 8653,
      "Ġedge": 8654,
      "Ġpolitician": 8655,
      "uity": 8656,
      "Ġcatch": 8657,
      "dem": 8658,
      "ĠAwards": 8659,
      "Ġmessages": 8660,
      "Ġweap": 8661,
      "oem": 8662,
      "Ġpurchased": 8663,
      "Ġcultiv": 8664,
      "psych": 8665,
      "Ġblind": 8666,
      "Ġtu": 8667,
      "aylor": 8668,
      "ĠGre": 8669,
      "geb": 8670,
      "Ġbit": 8671,
      "Ġpainting": 8672,
      "contin": 8673,
      "ĠUkraine": 8674,
      "Ġbatter": 8675,
      "ĠSummer": 8676,
      "aration": 8677,
      "Ġconverted": 8678,
      "Ġsons": 8679,
      "ĠTurkey": 8680,
      "ĠTop": 8681,
      "ĠSC": 8682,
      "Ġsimilarity": 8683,
      "Ġelic": 8684,
      "ĠAlexander": 8685,
      "ĠTurkish": 8686,
      "Ãº": 8687,
      "isse": 8688,
      "Ġâī¥": 8689,
      "Ġsupervision": 8690,
      "ĠOs": 8691,
      "ĠBab": 8692,
      "itory": 8693,
      "kes": 8694,
      "Ġelectro": 8695,
      "Ġsettle": 8696,
      "actic": 8697,
      "Ġgraduated": 8698,
      "outs": 8699,
      "Ġfurn": 8700,
      "Ġdispar": 8701,
      "Ġinherent": 8702,
      "ieden": 8703,
      "ĠGro": 8704,
      "Ġassistant": 8705,
      "ĠMalaysia": 8706,
      "Ġflight": 8707,
      "IM": 8708,
      "Ġdraft": 8709,
      "Ġdecade": 8710,
      "Ġinner": 8711,
      "Ġskin": 8712,
      "athered": 8713,
      "Ġadmitted": 8714,
      "Ġdescribing": 8715,
      "Ġbehavioural": 8716,
      "Ġcompensation": 8717,
      "makers": 8718,
      "Ġvertical": 8719,
      "enda": 8720,
      "ĠMain": 8721,
      "lij": 8722,
      "ĠBesides": 8723,
      "Ġtone": 8724,
      "ĠJones": 8725,
      "Ġgeen": 8726,
      "Ġrelate": 8727,
      "Ġvel": 8728,
      "ureau": 8729,
      "ĠOlympics": 8730,
      "hal": 8731,
      "Ġtemple": 8732,
      "eller": 8733,
      "aanse": 8734,
      "Ġ(_": 8735,
      "Ġflat": 8736,
      "inct": 8737,
      "Ġlogic": 8738,
      "apse": 8739,
      "Ġproxim": 8740,
      "iva": 8741,
      "Ġrecruitment": 8742,
      "Ġthorough": 8743,
      "Ġlessons": 8744,
      "Ġheavily": 8745,
      "Ġsich": 8746,
      "agram": 8747,
      "itarian": 8748,
      "itzer": 8749,
      "Sm": 8750,
      "Ġnecessity": 8751,
      "ĠOrder": 8752,
      "achers": 8753,
      "Ġentrepreneurship": 8754,
      "alam": 8755,
      "Ġspoken": 8756,
      "Ġcum": 8757,
      "Ġensuring": 8758,
      "Ġprelim": 8759,
      "Ġ54": 8760,
      "llustration": 8761,
      "2001": 8762,
      "ĠrÃ©": 8763,
      "Ġconference": 8764,
      "ĠDesc": 8765,
      "Ġfut": 8766,
      "acent": 8767,
      "Ã¸": 8768,
      "acco": 8769,
      "quarters": 8770,
      "Ġcortical": 8771,
      "LP": 8772,
      "inte": 8773,
      "apping": 8774,
      "Ġinsufficient": 8775,
      "Ġacadem": 8776,
      "Ġhotel": 8777,
      "dist": 8778,
      "Ġsacrific": 8779,
      "can": 8780,
      "Ġcourts": 8781,
      "ĠLie": 8782,
      "igher": 8783,
      "mentioned": 8784,
      "ĠEmperor": 8785,
      "ĠIll": 8786,
      "Ġweights": 8787,
      "Ġscientists": 8788,
      "rÃ©": 8789,
      "umatic": 8790,
      "ĠCrit": 8791,
      "Ġ1969": 8792,
      "Ġremember": 8793,
      "Ġgone": 8794,
      "isen": 8795,
      "Ġgross": 8796,
      "ĠPear": 8797,
      "Col": 8798,
      "ounter": 8799,
      "patient": 8800,
      "ĠBig": 8801,
      "Ġintroduce": 8802,
      "Ġasymm": 8803,
      "ï¿½": 8804,
      "Ġreign": 8805,
      "Ġhabits": 8806,
      "ĠWall": 8807,
      "Ġmotivated": 8808,
      "edia": 8809,
      "Us": 8810,
      "Ġveel": 8811,
      "Ġepist": 8812,
      "ĠConsequently": 8813,
      "ieuw": 8814,
      "Ġsinger": 8815,
      "ĠKnow": 8816,
      "oston": 8817,
      "ĠEnd": 8818,
      "ĠLikert": 8819,
      "mean": 8820,
      "Ġlatent": 8821,
      "Ġonto": 8822,
      "Ġentities": 8823,
      "Ġfarming": 8824,
      "Ġmuscle": 8825,
      "Ġsup": 8826,
      "Ġobstac": 8827,
      "Ġdrinking": 8828,
      "Ġvalidated": 8829,
      "Ġprotected": 8830,
      "Ġattachment": 8831,
      "ĠSenate": 8832,
      "ĠChampionships": 8833,
      "Ġregularly": 8834,
      "rable": 8835,
      "ĠTeam": 8836,
      "ĠThose": 8837,
      "Ġaffairs": 8838,
      "TP": 8839,
      "Ġseeing": 8840,
      "ĠBerlin": 8841,
      "pus": 8842,
      "tes": 8843,
      "Ġfighting": 8844,
      "Ġinputs": 8845,
      "Ġreferences": 8846,
      "igital": 8847,
      "Ġdiabetes": 8848,
      "Ġmir": 8849,
      "Ġisolation": 8850,
      "Ġmild": 8851,
      "Ġequilibrium": 8852,
      "Ġdecreases": 8853,
      "ĠWithin": 8854,
      "Ġpoly": 8855,
      "ca": 8856,
      "ĠEvery": 8857,
      "ĠEliz": 8858,
      "Ġou": 8859,
      "icks": 8860,
      "ennis": 8861,
      "Ġproposal": 8862,
      "ĠAk": 8863,
      "Ġreaders": 8864,
      "ĠNap": 8865,
      "Ġ1967": 8866,
      "Ġdiagnosed": 8867,
      "Ġsurgery": 8868,
      "Ġbill": 8869,
      "len": 8870,
      "ĠMcC": 8871,
      "Ġeind": 8872,
      "ĠHon": 8873,
      "Ġasking": 8874,
      "Ġvalidation": 8875,
      "Ġutilization": 8876,
      "Ġinvestigating": 8877,
      "Ġambig": 8878,
      "ĠÐ": 8879,
      "Ġcurve": 8880,
      "seud": 8881,
      "isting": 8882,
      "ĠVis": 8883,
      "Ġsubstitut": 8884,
      "Ġresponded": 8885,
      "ĠÎº": 8886,
      "Ġ56": 8887,
      "Ġmapping": 8888,
      "ĠConn": 8889,
      "angen": 8890,
      "ĠLy": 8891,
      "olve": 8892,
      "Ġpubl": 8893,
      "ĠJustice": 8894,
      "ĠSurvey": 8895,
      "Ġfatigue": 8896,
      "Ġroof": 8897,
      "zet": 8898,
      "Ġentitled": 8899,
      "Ġinspect": 8900,
      "Ġovers": 8901,
      "ĠMeanwhile": 8902,
      "Ġexploring": 8903,
      "uter": 8904,
      "Ġarise": 8905,
      "Ġmembership": 8906,
      "Ġimmun": 8907,
      "Ġverv": 8908,
      "utenant": 8909,
      "ellen": 8910,
      "Ġlistening": 8911,
      "Ġrit": 8912,
      "adi": 8913,
      "ĠFlorida": 8914,
      "Ġbesch": 8915,
      "Ġsamen": 8916,
      "bij": 8917,
      "Ġdefinitions": 8918,
      "isely": 8919,
      "chest": 8920,
      "Ġ53": 8921,
      "ĠPTSD": 8922,
      "Ġprohib": 8923,
      "Ġrising": 8924,
      "ogle": 8925,
      "Ġshares": 8926,
      "Ġpaint": 8927,
      "Ġadvis": 8928,
      "ĠCa": 8929,
      "oly": 8930,
      "Ġdocumented": 8931,
      "ĠICT": 8932,
      "ĠHan": 8933,
      "ĠHoly": 8934,
      "Ġilleg": 8935,
      "Ġliberal": 8936,
      "ĠWeb": 8937,
      "Ġmedal": 8938,
      "ooth": 8939,
      "ĠID": 8940,
      "Ġplain": 8941,
      "ĠNorm": 8942,
      "Ġutter": 8943,
      "Ġuna": 8944,
      "otter": 8945,
      "Ġembedded": 8946,
      "eenth": 8947,
      "Comp": 8948,
      "kins": 8949,
      "Ġsubgroup": 8950,
      "ĠEarly": 8951,
      "net": 8952,
      "ĠDNA": 8953,
      "ections": 8954,
      "Ġprovisions": 8955,
      "Ġabund": 8956,
      "Ġunemployment": 8957,
      "ĠCommon": 8958,
      "Ġadaptive": 8959,
      "Ġhappiness": 8960,
      "umer": 8961,
      "Ġstead": 8962,
      "ĠâĶ": 8963,
      "Ġlisten": 8964,
      "Ġassemb": 8965,
      "ĠWilliams": 8966,
      "HR": 8967,
      "Ġrarely": 8968,
      "Ġdevelopments": 8969,
      "adel": 8970,
      "ĠJul": 8971,
      "Ġsuffer": 8972,
      "Ġhoc": 8973,
      "cies": 8974,
      "My": 8975,
      "ĠSecretary": 8976,
      "Ġoverview": 8977,
      "Ġsocially": 8978,
      "asy": 8979,
      "Ġancest": 8980,
      "ĠBol": 8981,
      "2002": 8982,
      "ĠCur": 8983,
      "ounce": 8984,
      "ells": 8985,
      "asm": 8986,
      "ibly": 8987,
      "ograp": 8988,
      "uese": 8989,
      "'m": 8990,
      "dis": 8991,
      "etime": 8992,
      "Ġlake": 8993,
      "ĠExt": 8994,
      "Ġsyndrome": 8995,
      "ĠInstead": 8996,
      "hor": 8997,
      "eterm": 8998,
      "Ġinject": 8999,
      "Ġinitiative": 9000,
      "vania": 9001,
      "bles": 9002,
      "Ġye": 9003,
      "ontal": 9004,
      "Ġdanger": 9005,
      "Ġours": 9006,
      "Ġexactly": 9007,
      "Ġfill": 9008,
      "Ġvoluntary": 9009,
      "Ġcovering": 9010,
      "Ġaffil": 9011,
      "Ġelsewhere": 9012,
      "Ġgrid": 9013,
      "ĠRa": 9014,
      "Ġforg": 9015,
      "Ġrequirement": 9016,
      "ĠAM": 9017,
      "Ġportray": 9018,
      "Ġlifestyle": 9019,
      "Ġmonthly": 9020,
      "Ab": 9021,
      "ographics": 9022,
      "Ġthy": 9023,
      "Ġinflation": 9024,
      "Ġhair": 9025,
      "Our": 9026,
      "Ġexhaust": 9027,
      "Ġsettled": 9028,
      "Illustration": 9029,
      "Ġconj": 9030,
      "uj": 9031,
      "ĠArticle": 9032,
      "ĠDev": 9033,
      "]).": 9034,
      "Ġgovernor": 9035,
      "orted": 9036,
      "ĠAff": 9037,
      "Ġ1964": 9038,
      "Ġfluctu": 9039,
      "So": 9040,
      "ĠEll": 9041,
      "Ġorth": 9042,
      "Ġproperly": 9043,
      "Ġbelie": 9044,
      "Ġtherapeutic": 9045,
      "Ġrevers": 9046,
      "FS": 9047,
      "Ġtells": 9048,
      "Ġarrival": 9049,
      "Ġhuge": 9050,
      "Ġbab": 9051,
      "dule": 9052,
      "Ġsend": 9053,
      "dependent": 9054,
      "gener": 9055,
      "Ġshock": 9056,
      "Ġdestination": 9057,
      "Ġcorrection": 9058,
      "Ġspons": 9059,
      "Ġvit": 9060,
      "Ġdecide": 9061,
      "ĠÎ¼": 9062,
      "aluation": 9063,
      ",--": 9064,
      "Ġbasket": 9065,
      "ĠIslands": 9066,
      "Ġtum": 9067,
      "Ġgrass": 9068,
      "Ġofficially": 9069,
      "Î¬": 9070,
      "Ġbeauty": 9071,
      "ĠFac": 9072,
      "Ġvac": 9073,
      "ĠEEG": 9074,
      "Ġclient": 9075,
      "ĠAdminist": 9076,
      "Ġdella": 9077,
      "free": 9078,
      "ampion": 9079,
      "Ġconsecut": 9080,
      "Ġcommunicate": 9081,
      "Ġshel": 9082,
      "Ġrelief": 9083,
      "Ġdimin": 9084,
      "adequ": 9085,
      "How": 9086,
      "Ġretirement": 9087,
      "Ġacceler": 9088,
      "Ġmurder": 9089,
      "ĠDirector": 9090,
      "ieuwe": 9091,
      "ĠMrs": 9092,
      "uation": 9093,
      "Ġstars": 9094,
      "Ġthirty": 9095,
      "Ġspectrum": 9096,
      "Ġgall": 9097,
      "App": 9098,
      "Ġinher": 9099,
      "Ġtourist": 9100,
      "Ġdesignated": 9101,
      "Ġpathways": 9102,
      "Ġcommod": 9103,
      "Ġgathered": 9104,
      "Ġodds": 9105,
      "Ġinfluential": 9106,
      "anches": 9107,
      "ĠCat": 9108,
      "Ġcopies": 9109,
      "AA": 9110,
      "âĶĢâĶĢâĶĢâĶĢ": 9111,
      "Ġdisaster": 9112,
      "thood": 9113,
      "Ġforming": 9114,
      "ĠPrim": 9115,
      "Ġevil": 9116,
      "Ġpartnership": 9117,
      "Ġheads": 9118,
      "Ġroll": 9119,
      "Ġbow": 9120,
      "Ġtracks": 9121,
      "ĠBishop": 9122,
      "nen": 9123,
      "Ġrehabilitation": 9124,
      "Ġmodes": 9125,
      "oord": 9126,
      "rogen": 9127,
      "Ġphysiological": 9128,
      "inner": 9129,
      "ĠFace": 9130,
      "asures": 9131,
      "ĠHy": 9132,
      "Ġbron": 9133,
      "Ġalgorithms": 9134,
      "Qu": 9135,
      "Ġtrait": 9136,
      "ĠDan": 9137,
      "break": 9138,
      "ĠRevolution": 9139,
      "ĠCT": 9140,
      "Ġroads": 9141,
      "rological": 9142,
      "Ġspeaker": 9143,
      "Ġresponsibilities": 9144,
      "Ġunp": 9145,
      "rin": 9146,
      "Ġsupervis": 9147,
      "Ġlosing": 9148,
      "ropolitan": 9149,
      "Ġyellow": 9150,
      "Ġarchae": 9151,
      "ĠIndonesian": 9152,
      "ĠJean": 9153,
      "Ġlogistic": 9154,
      "antal": 9155,
      "aping": 9156,
      "high": 9157,
      "Ġmovie": 9158,
      "asty": 9159,
      "Ġreduces": 9160,
      "Ġgenerations": 9161,
      "ĠOtt": 9162,
      "Ġfaster": 9163,
      "Ġexplor": 9164,
      "Personal": 9165,
      "atisf": 9166,
      "Ġobtaining": 9167,
      "oro": 9168,
      "ĠOnce": 9169,
      "Ġburied": 9170,
      "Ġartificial": 9171,
      "Ġmyth": 9172,
      "Ġreflecting": 9173,
      "Ġpersu": 9174,
      "Ġconsiders": 9175,
      "ĠSupreme": 9176,
      "Ġpreliminary": 9177,
      "ĠANOVA": 9178,
      "ĠLow": 9179,
      "Ġdop": 9180,
      "Ġvert": 9181,
      "Ġ1965": 9182,
      "Ġfalls": 9183,
      "Ġprivile": 9184,
      "zech": 9185,
      "Ġmitig": 9186,
      "'re": 9187,
      "ĠJun": 9188,
      "oute": 9189,
      "ĠCoast": 9190,
      "lades": 9191,
      "Ġdeficits": 9192,
      "ensions": 9193,
      "ressions": 9194,
      "iten": 9195,
      "aran": 9196,
      "ĠThough": 9197,
      "ĠRepresent": 9198,
      "Ġpossession": 9199,
      "Ġsculpt": 9200,
      "ĠAgain": 9201,
      "Ġdriver": 9202,
      "Ġrepro": 9203,
      "ĠSN": 9204,
      "ono": 9205,
      "Ġemphasized": 9206,
      "ĠIns": 9207,
      "Ġunclear": 9208,
      "itations": 9209,
      "ctor": 9210,
      "Ġreturning": 9211,
      "ĠED": 9212,
      "Ġcontradict": 9213,
[...]
